#include "magic_wand_model_data.h"

// We need to keep the data array aligned on some architectures.
#ifdef __has_attribute
#define HAVE_ATTRIBUTE(x) __has_attribute(x)
#else
#define HAVE_ATTRIBUTE(x) 0
#endif
#if HAVE_ATTRIBUTE(aligned) || (defined(__GNUC__) && !defined(__clang__))
#define DATA_ALIGN_ATTRIBUTE __attribute__((aligned(4)))
#else
#define DATA_ALIGN_ATTRIBUTE
#endif

const unsigned char g_magic_wand_model_data[] DATA_ALIGN_ATTRIBUTE = {
  0x1c, 0x00, 0x00, 0x00, 0x54, 0x46, 0x4c, 0x33, 0x14, 0x00, 0x20, 0x00,
  0x04, 0x00, 0x08, 0x00, 0x0c, 0x00, 0x10, 0x00, 0x14, 0x00, 0x00, 0x00,
  0x18, 0x00, 0x1c, 0x00, 0x14, 0x00, 0x00, 0x00, 0x03, 0x00, 0x00, 0x00,
  0x18, 0x00, 0x00, 0x00, 0x2c, 0x00, 0x00, 0x00, 0xd8, 0x00, 0x00, 0x00,
  0x2c, 0x00, 0x00, 0x00, 0x80, 0x00, 0x00, 0x00, 0x78, 0x00, 0x00, 0x00,
  0x05, 0x00, 0x00, 0x00, 0x28, 0x07, 0x00, 0x00, 0x44, 0x06, 0x00, 0x00,
  0xbc, 0x03, 0x00, 0x00, 0xf8, 0x02, 0x00, 0x00, 0xac, 0x01, 0x00, 0x00,
  0x01, 0x00, 0x00, 0x00, 0xd0, 0x00, 0x00, 0x00, 0x14, 0x00, 0x00, 0x00,
  0xdc, 0x32, 0x00, 0x00, 0xd8, 0x32, 0x00, 0x00, 0xd0, 0x31, 0x00, 0x00,
  0x1c, 0x31, 0x00, 0x00, 0x74, 0x30, 0x00, 0x00, 0xfc, 0x2f, 0x00, 0x00,
  0x90, 0x2f, 0x00, 0x00, 0x40, 0x13, 0x00, 0x00, 0xec, 0x11, 0x00, 0x00,
  0x10, 0x10, 0x00, 0x00, 0xb4, 0x07, 0x00, 0x00, 0xb0, 0x32, 0x00, 0x00,
  0xac, 0x32, 0x00, 0x00, 0xa8, 0x32, 0x00, 0x00, 0xa4, 0x32, 0x00, 0x00,
  0xa0, 0x32, 0x00, 0x00, 0x9c, 0x32, 0x00, 0x00, 0x98, 0x32, 0x00, 0x00,
  0x94, 0x32, 0x00, 0x00, 0x3c, 0x00, 0x00, 0x00, 0x00, 0x00, 0x00, 0x00,
  0x01, 0x00, 0x00, 0x00, 0x0c, 0x00, 0x00, 0x00, 0x08, 0x00, 0x0c, 0x00,
  0x04, 0x00, 0x08, 0x00, 0x08, 0x00, 0x00, 0x00, 0x08, 0x00, 0x00, 0x00,
  0x13, 0x00, 0x00, 0x00, 0x13, 0x00, 0x00, 0x00, 0x6d, 0x69, 0x6e, 0x5f,
  0x72, 0x75, 0x6e, 0x74, 0x69, 0x6d, 0x65, 0x5f, 0x76, 0x65, 0x72, 0x73,
  0x69, 0x6f, 0x6e, 0x00, 0xb6, 0xce, 0xff, 0xff, 0x04, 0x00, 0x00, 0x00,
  0x10, 0x00, 0x00, 0x00, 0x31, 0x2e, 0x35, 0x2e, 0x30, 0x00, 0x00, 0x00,
  0x00, 0x00, 0x00, 0x00, 0x00, 0x00, 0x00, 0x00, 0x0f, 0x00, 0x00, 0x00,
  0x4d, 0x4c, 0x49, 0x52, 0x20, 0x43, 0x6f, 0x6e, 0x76, 0x65, 0x72, 0x74,
  0x65, 0x64, 0x2e, 0x00, 0x00, 0x00, 0x0e, 0x00, 0x18, 0x00, 0x04, 0x00,
  0x08, 0x00, 0x0c, 0x00, 0x10, 0x00, 0x14, 0x00, 0x0e, 0x00, 0x00, 0x00,
  0x14, 0x00, 0x00, 0x00, 0x5c, 0x00, 0x00, 0x00, 0x60, 0x00, 0x00, 0x00,
  0x64, 0x00, 0x00, 0x00, 0x84, 0x00, 0x00, 0x00, 0x12, 0x00, 0x00, 0x00,
  0x9c, 0x31, 0x00, 0x00, 0x2c, 0x31, 0x00, 0x00, 0x88, 0x30, 0x00, 0x00,
  0xe0, 0x2f, 0x00, 0x00, 0x38, 0x2f, 0x00, 0x00, 0xd4, 0x2e, 0x00, 0x00,
  0x6c, 0x2e, 0x00, 0x00, 0x18, 0x12, 0x00, 0x00, 0xbc, 0x10, 0x00, 0x00,
  0xe0, 0x0e, 0x00, 0x00, 0x0c, 0x06, 0x00, 0x00, 0x28, 0x05, 0x00, 0x00,
  0xe8, 0x03, 0x00, 0x00, 0x3c, 0x03, 0x00, 0x00, 0x98, 0x02, 0x00, 0x00,
  0xd4, 0x01, 0x00, 0x00, 0x10, 0x01, 0x00, 0x00, 0x84, 0x00, 0x00, 0x00,
  0x01, 0x00, 0x00, 0x00, 0x00, 0x00, 0x00, 0x00, 0x01, 0x00, 0x00, 0x00,
  0x11, 0x00, 0x00, 0x00, 0x08, 0x00, 0x00, 0x00, 0x74, 0x05, 0x00, 0x00,
  0x94, 0x04, 0x00, 0x00, 0x78, 0x03, 0x00, 0x00, 0xbc, 0x02, 0x00, 0x00,
  0x30, 0x02, 0x00, 0x00, 0x50, 0x01, 0x00, 0x00, 0xa8, 0x00, 0x00, 0x00,
  0x10, 0x00, 0x00, 0x00, 0x04, 0x00, 0x00, 0x00, 0x6d, 0x61, 0x69, 0x6e,
  0x00, 0x00, 0x00, 0x00, 0x7a, 0xff, 0xff, 0xff, 0x00, 0x00, 0x00, 0x09,
  0x04, 0x00, 0x00, 0x00, 0x1c, 0x00, 0x00, 0x00, 0x10, 0x00, 0x00, 0x00,
  0x04, 0x00, 0x00, 0x00, 0xb2, 0xcf, 0xff, 0xff, 0x00, 0x00, 0x80, 0x3f,
  0x01, 0x00, 0x00, 0x00, 0x11, 0x00, 0x00, 0x00, 0x01, 0x00, 0x00, 0x00,
  0x10, 0x00, 0x00, 0x00, 0xa0, 0xfa, 0xff, 0xff, 0x19, 0x00, 0x00, 0x00,
  0x00, 0x00, 0x00, 0x19, 0x01, 0x00, 0x00, 0x00, 0x40, 0xcf, 0xff, 0xff,
  0x14, 0x00, 0x00, 0x00, 0x12, 0x00, 0x00, 0x00, 0x18, 0x00, 0x00, 0x00,
  0x30, 0x00, 0x00, 0x00, 0x20, 0x00, 0x00, 0x00, 0x02, 0x00, 0x00, 0x00,
  0x01, 0x00, 0x00, 0x00, 0x04, 0x00, 0x00, 0x00, 0x08, 0x00, 0x00, 0x00,
  0x49, 0x64, 0x65, 0x6e, 0x74, 0x69, 0x74, 0x79, 0x00, 0x00, 0x00, 0x00,
  0x02, 0x00, 0x00, 0x00, 0xff, 0xff, 0xff, 0xff, 0x04, 0x00, 0x00, 0x00,
  0x24, 0xd0, 0xff, 0xff, 0x00, 0x00, 0x0e, 0x00, 0x18, 0x00, 0x08, 0x00,
  0x0c, 0x00, 0x10, 0x00, 0x07, 0x00, 0x14, 0x00, 0x0e, 0x00, 0x00, 0x00,
  0x00, 0x00, 0x00, 0x08, 0x03, 0x00, 0x00, 0x00, 0x18, 0x00, 0x00, 0x00,
  0x0c, 0x00, 0x00, 0x00, 0x04, 0x00, 0x00, 0x00, 0x40, 0xcf, 0xff, 0xff,
  0x01, 0x00, 0x00, 0x00, 0x10, 0x00, 0x00, 0x00, 0x03, 0x00, 0x00, 0x00,
  0x0f, 0x00, 0x00, 0x00, 0x07, 0x00, 0x00, 0x00, 0x04, 0x00, 0x00, 0x00,
  0xc8, 0xcf, 0xff, 0xff, 0x14, 0x00, 0x00, 0x00, 0x11, 0x00, 0x00, 0x00,
  0x18, 0x00, 0x00, 0x00, 0x5c, 0x00, 0x00, 0x00, 0x4c, 0x00, 0x00, 0x00,
  0x02, 0x00, 0x00, 0x00, 0x01, 0x00, 0x00, 0x00, 0x04, 0x00, 0x00, 0x00,
  0x34, 0x00, 0x00, 0x00, 0x73, 0x65, 0x71, 0x75, 0x65, 0x6e, 0x74, 0x69,
  0x61, 0x6c, 0x2f, 0x64, 0x65, 0x6e, 0x73, 0x65, 0x5f, 0x31, 0x2f, 0x4d,
  0x61, 0x74, 0x4d, 0x75, 0x6c, 0x3b, 0x73, 0x65, 0x71, 0x75, 0x65, 0x6e,
  0x74, 0x69, 0x61, 0x6c, 0x2f, 0x64, 0x65, 0x6e, 0x73, 0x65, 0x5f, 0x31,
  0x2f, 0x42, 0x69, 0x61, 0x73, 0x41, 0x64, 0x64, 0x00, 0x00, 0x00, 0x00,
  0x02, 0x00, 0x00, 0x00, 0xff, 0xff, 0xff, 0xff, 0x04, 0x00, 0x00, 0x00,
  0xc8, 0xcf, 0xff, 0xff, 0xda, 0xfc, 0xff, 0xff, 0x00, 0x00, 0x00, 0x08,
  0x03, 0x00, 0x00, 0x00, 0x24, 0x00, 0x00, 0x00, 0x18, 0x00, 0x00, 0x00,
  0x0c, 0x00, 0x00, 0x00, 0x00, 0x00, 0x06, 0x00, 0x08, 0x00, 0x07, 0x00,
  0x06, 0x00, 0x00, 0x00, 0x00, 0x00, 0x00, 0x01, 0x01, 0x00, 0x00, 0x00,
  0x0f, 0x00, 0x00, 0x00, 0x03, 0x00, 0x00, 0x00, 0x0e, 0x00, 0x00, 0x00,
  0x06, 0x00, 0x00, 0x00, 0x03, 0x00, 0x00, 0x00, 0xe8, 0xfb, 0xff, 0xff,
  0x09, 0x00, 0x00, 0x00, 0x00, 0x00, 0x00, 0x09, 0x01, 0x00, 0x00, 0x00,
  0x88, 0xd0, 0xff, 0xff, 0x14, 0x00, 0x00, 0x00, 0x10, 0x00, 0x00, 0x00,
  0x18, 0x00, 0x00, 0x00, 0x6c, 0x00, 0x00, 0x00, 0x5c, 0x00, 0x00, 0x00,
  0x02, 0x00, 0x00, 0x00, 0x01, 0x00, 0x00, 0x00, 0x10, 0x00, 0x00, 0x00,
  0x46, 0x00, 0x00, 0x00, 0x73, 0x65, 0x71, 0x75, 0x65, 0x6e, 0x74, 0x69,
  0x61, 0x6c, 0x2f, 0x64, 0x65, 0x6e, 0x73, 0x65, 0x2f, 0x4d, 0x61, 0x74,
  0x4d, 0x75, 0x6c, 0x3b, 0x73, 0x65, 0x71, 0x75, 0x65, 0x6e, 0x74, 0x69,
  0x61, 0x6c, 0x2f, 0x64, 0x65, 0x6e, 0x73, 0x65, 0x2f, 0x52, 0x65, 0x6c,
  0x75, 0x3b, 0x73, 0x65, 0x71, 0x75, 0x65, 0x6e, 0x74, 0x69, 0x61, 0x6c,
  0x2f, 0x64, 0x65, 0x6e, 0x73, 0x65, 0x2f, 0x42, 0x69, 0x61, 0x73, 0x41,
  0x64, 0x64, 0x00, 0x00, 0x02, 0x00, 0x00, 0x00, 0xff, 0xff, 0xff, 0xff,
  0x10, 0x00, 0x00, 0x00, 0xa8, 0xd1, 0xff, 0xff, 0x00, 0x00, 0x0a, 0x00,
  0x10, 0x00, 0x04, 0x00, 0x08, 0x00, 0x0c, 0x00, 0x0a, 0x00, 0x00, 0x00,
  0x02, 0x00, 0x00, 0x00, 0x10, 0x00, 0x00, 0x00, 0x04, 0x00, 0x00, 0x00,
  0x01, 0x00, 0x00, 0x00, 0x0e, 0x00, 0x00, 0x00, 0x02, 0x00, 0x00, 0x00,
  0x0d, 0x00, 0x00, 0x00, 0x05, 0x00, 0x00, 0x00, 0xa8, 0xfc, 0xff, 0xff,
  0x16, 0x00, 0x00, 0x00, 0x00, 0x00, 0x00, 0x16, 0x01, 0x00, 0x00, 0x00,
  0x48, 0xd1, 0xff, 0xff, 0x14, 0x00, 0x00, 0x00, 0x0f, 0x00, 0x00, 0x00,
  0x18, 0x00, 0x00, 0x00, 0x40, 0x00, 0x00, 0x00, 0x30, 0x00, 0x00, 0x00,
  0x02, 0x00, 0x00, 0x00, 0x01, 0x00, 0x00, 0x00, 0x70, 0x00, 0x00, 0x00,
  0x1a, 0x00, 0x00, 0x00, 0x73, 0x65, 0x71, 0x75, 0x65, 0x6e, 0x74, 0x69,
  0x61, 0x6c, 0x2f, 0x66, 0x6c, 0x61, 0x74, 0x74, 0x65, 0x6e, 0x2f, 0x52,
  0x65, 0x73, 0x68, 0x61, 0x70, 0x65, 0x00, 0x00, 0x02, 0x00, 0x00, 0x00,
  0xff, 0xff, 0xff, 0xff, 0x70, 0x00, 0x00, 0x00, 0x2c, 0xd1, 0xff, 0xff,
  0x3e, 0xfe, 0xff, 0xff, 0x00, 0x00, 0x00, 0x05, 0x01, 0x00, 0x00, 0x00,
  0x38, 0x00, 0x00, 0x00, 0x2c, 0x00, 0x00, 0x00, 0x14, 0x00, 0x00, 0x00,
  0x00, 0x00, 0x0e, 0x00, 0x14, 0x00, 0x00, 0x00, 0x10, 0x00, 0x0c, 0x00,
  0x08, 0x00, 0x04, 0x00, 0x0e, 0x00, 0x00, 0x00, 0x03, 0x00, 0x00, 0x00,
  0x01, 0x00, 0x00, 0x00, 0x03, 0x00, 0x00, 0x00, 0x01, 0x00, 0x00, 0x00,
  0x01, 0x00, 0x00, 0x00, 0x0d, 0x00, 0x00, 0x00, 0x01, 0x00, 0x00, 0x00,
  0x0c, 0x00, 0x00, 0x00, 0xe8, 0xd1, 0xff, 0xff, 0x14, 0x00, 0x00, 0x00,
  0x0e, 0x00, 0x00, 0x00, 0x20, 0x00, 0x00, 0x00, 0x58, 0x00, 0x00, 0x00,
  0x40, 0x00, 0x00, 0x00, 0x04, 0x00, 0x00, 0x00, 0x01, 0x00, 0x00, 0x00,
  0x07, 0x00, 0x00, 0x00, 0x01, 0x00, 0x00, 0x00, 0x10, 0x00, 0x00, 0x00,
  0x22, 0x00, 0x00, 0x00, 0x73, 0x65, 0x71, 0x75, 0x65, 0x6e, 0x74, 0x69,
  0x61, 0x6c, 0x2f, 0x6d, 0x61, 0x78, 0x5f, 0x70, 0x6f, 0x6f, 0x6c, 0x69,
  0x6e, 0x67, 0x32, 0x64, 0x5f, 0x31, 0x2f, 0x4d, 0x61, 0x78, 0x50, 0x6f,
  0x6f, 0x6c, 0x00, 0x00, 0x04, 0x00, 0x00, 0x00, 0xff, 0xff, 0xff, 0xff,
  0x07, 0x00, 0x00, 0x00, 0x01, 0x00, 0x00, 0x00, 0x10, 0x00, 0x00, 0x00,
  0xe4, 0xd1, 0xff, 0xff, 0x1a, 0xfe, 0xff, 0xff, 0x00, 0x00, 0x00, 0x01,
  0x24, 0x00, 0x00, 0x00, 0x18, 0x00, 0x00, 0x00, 0x04, 0x00, 0x00, 0x00,
  0x0c, 0xfe, 0xff, 0xff, 0x01, 0x00, 0x00, 0x00, 0x01, 0x00, 0x00, 0x00,
  0x00, 0x00, 0x00, 0x01, 0x01, 0x00, 0x00, 0x00, 0x0c, 0x00, 0x00, 0x00,
  0x03, 0x00, 0x00, 0x00, 0x0b, 0x00, 0x00, 0x00, 0x09, 0x00, 0x00, 0x00,
  0x02, 0x00, 0x00, 0x00, 0x90, 0xd2, 0xff, 0xff, 0x14, 0x00, 0x00, 0x00,
  0x0d, 0x00, 0x00, 0x00, 0x20, 0x00, 0x00, 0x00, 0xb8, 0x00, 0x00, 0x00,
  0xa0, 0x00, 0x00, 0x00, 0x04, 0x00, 0x00, 0x00, 0x01, 0x00, 0x00, 0x00,
  0x15, 0x00, 0x00, 0x00, 0x01, 0x00, 0x00, 0x00, 0x10, 0x00, 0x00, 0x00,
  0x83, 0x00, 0x00, 0x00, 0x73, 0x65, 0x71, 0x75, 0x65, 0x6e, 0x74, 0x69,
  0x61, 0x6c, 0x2f, 0x63, 0x6f, 0x6e, 0x76, 0x32, 0x64, 0x5f, 0x31, 0x2f,
  0x52, 0x65, 0x6c, 0x75, 0x3b, 0x73, 0x65, 0x71, 0x75, 0x65, 0x6e, 0x74,
  0x69, 0x61, 0x6c, 0x2f, 0x63, 0x6f, 0x6e, 0x76, 0x32, 0x64, 0x5f, 0x31,
  0x2f, 0x42, 0x69, 0x61, 0x73, 0x41, 0x64, 0x64, 0x3b, 0x73, 0x65, 0x71,
  0x75, 0x65, 0x6e, 0x74, 0x69, 0x61, 0x6c, 0x2f, 0x63, 0x6f, 0x6e, 0x76,
  0x32, 0x64, 0x5f, 0x31, 0x2f, 0x43, 0x6f, 0x6e, 0x76, 0x32, 0x44, 0x3b,
  0x73, 0x65, 0x71, 0x75, 0x65, 0x6e, 0x74, 0x69, 0x61, 0x6c, 0x2f, 0x63,
  0x6f, 0x6e, 0x76, 0x32, 0x64, 0x5f, 0x31, 0x2f, 0x42, 0x69, 0x61, 0x73,
  0x41, 0x64, 0x64, 0x2f, 0x52, 0x65, 0x61, 0x64, 0x56, 0x61, 0x72, 0x69,
  0x61, 0x62, 0x6c, 0x65, 0x4f, 0x70, 0x2f, 0x72, 0x65, 0x73, 0x6f, 0x75,
  0x72, 0x63, 0x65, 0x00, 0x04, 0x00, 0x00, 0x00, 0xff, 0xff, 0xff, 0xff,
  0x15, 0x00, 0x00, 0x00, 0x01, 0x00, 0x00, 0x00, 0x10, 0x00, 0x00, 0x00,
  0xfc, 0xd3, 0xff, 0xff, 0x00, 0x00, 0x0e, 0x00, 0x1a, 0x00, 0x08, 0x00,
  0x0c, 0x00, 0x10, 0x00, 0x07, 0x00, 0x14, 0x00, 0x0e, 0x00, 0x00, 0x00,
  0x00, 0x00, 0x00, 0x05, 0x01, 0x00, 0x00, 0x00, 0x3c, 0x00, 0x00, 0x00,
  0x30, 0x00, 0x00, 0x00, 0x14, 0x00, 0x00, 0x00, 0x00, 0x00, 0x0e, 0x00,
  0x18, 0x00, 0x17, 0x00, 0x10, 0x00, 0x0c, 0x00, 0x08, 0x00, 0x04, 0x00,
  0x0e, 0x00, 0x00, 0x00, 0x03, 0x00, 0x00, 0x00, 0x03, 0x00, 0x00, 0x00,
  0x03, 0x00, 0x00, 0x00, 0x03, 0x00, 0x00, 0x00, 0x00, 0x00, 0x00, 0x01,
  0x01, 0x00, 0x00, 0x00, 0x0b, 0x00, 0x00, 0x00, 0x01, 0x00, 0x00, 0x00,
  0x0a, 0x00, 0x00, 0x00, 0x2c, 0xff, 0xff, 0xff, 0x11, 0x00, 0x00, 0x00,
  0x00, 0x00, 0x00, 0x11, 0x01, 0x00, 0x00, 0x00, 0xcc, 0xd3, 0xff, 0xff,
  0x14, 0x00, 0x00, 0x00, 0x0c, 0x00, 0x00, 0x00, 0x20, 0x00, 0x00, 0x00,
  0x58, 0x00, 0x00, 0x00, 0x40, 0x00, 0x00, 0x00, 0x04, 0x00, 0x00, 0x00,
  0x01, 0x00, 0x00, 0x00, 0x15, 0x00, 0x00, 0x00, 0x01, 0x00, 0x00, 0x00,
  0x08, 0x00, 0x00, 0x00, 0x20, 0x00, 0x00, 0x00, 0x73, 0x65, 0x71, 0x75,
  0x65, 0x6e, 0x74, 0x69, 0x61, 0x6c, 0x2f, 0x6d, 0x61, 0x78, 0x5f, 0x70,
  0x6f, 0x6f, 0x6c, 0x69, 0x6e, 0x67, 0x32, 0x64, 0x2f, 0x4d, 0x61, 0x78,
  0x50, 0x6f, 0x6f, 0x6c, 0x00, 0x00, 0x00, 0x00, 0x04, 0x00, 0x00, 0x00,
  0xff, 0xff, 0xff, 0xff, 0x15, 0x00, 0x00, 0x00, 0x01, 0x00, 0x00, 0x00,
  0x08, 0x00, 0x00, 0x00, 0xd8, 0xd4, 0xff, 0xff, 0x00, 0x00, 0x0e, 0x00,
  0x14, 0x00, 0x00, 0x00, 0x08, 0x00, 0x0c, 0x00, 0x07, 0x00, 0x10, 0x00,
  0x0e, 0x00, 0x00, 0x00, 0x00, 0x00, 0x00, 0x01, 0x30, 0x00, 0x00, 0x00,
  0x24, 0x00, 0x00, 0x00, 0x10, 0x00, 0x00, 0x00, 0x0c, 0x00, 0x10, 0x00,
  0x00, 0x00, 0x04, 0x00, 0x08, 0x00, 0x0f, 0x00, 0x0c, 0x00, 0x00, 0x00,
  0x01, 0x00, 0x00, 0x00, 0x01, 0x00, 0x00, 0x00, 0x00, 0x00, 0x00, 0x01,
  0x01, 0x00, 0x00, 0x00, 0x0a, 0x00, 0x00, 0x00, 0x03, 0x00, 0x00, 0x00,
  0x00, 0x00, 0x00, 0x00, 0x08, 0x00, 0x00, 0x00, 0x01, 0x00, 0x00, 0x00,
  0x0c, 0x00, 0x10, 0x00, 0x0b, 0x00, 0x00, 0x00, 0x0c, 0x00, 0x04, 0x00,
  0x0c, 0x00, 0x00, 0x00, 0x03, 0x00, 0x00, 0x00, 0x00, 0x00, 0x00, 0x03,
  0x01, 0x00, 0x00, 0x00, 0xac, 0xd4, 0xff, 0xff, 0x14, 0x00, 0x00, 0x00,
  0x0b, 0x00, 0x00, 0x00, 0x20, 0x00, 0x00, 0x00, 0xb0, 0x00, 0x00, 0x00,
  0x98, 0x00, 0x00, 0x00, 0x04, 0x00, 0x00, 0x00, 0x01, 0x00, 0x00, 0x00,
  0x40, 0x00, 0x00, 0x00, 0x03, 0x00, 0x00, 0x00, 0x08, 0x00, 0x00, 0x00,
  0x7b, 0x00, 0x00, 0x00, 0x73, 0x65, 0x71, 0x75, 0x65, 0x6e, 0x74, 0x69,
  0x61, 0x6c, 0x2f, 0x63, 0x6f, 0x6e, 0x76, 0x32, 0x64, 0x2f, 0x52, 0x65,
  0x6c, 0x75, 0x3b, 0x73, 0x65, 0x71, 0x75, 0x65, 0x6e, 0x74, 0x69, 0x61,
  0x6c, 0x2f, 0x63, 0x6f, 0x6e, 0x76, 0x32, 0x64, 0x2f, 0x42, 0x69, 0x61,
  0x73, 0x41, 0x64, 0x64, 0x3b, 0x73, 0x65, 0x71, 0x75, 0x65, 0x6e, 0x74,
  0x69, 0x61, 0x6c, 0x2f, 0x63, 0x6f, 0x6e, 0x76, 0x32, 0x64, 0x2f, 0x43,
  0x6f, 0x6e, 0x76, 0x32, 0x44, 0x3b, 0x73, 0x65, 0x71, 0x75, 0x65, 0x6e,
  0x74, 0x69, 0x61, 0x6c, 0x2f, 0x63, 0x6f, 0x6e, 0x76, 0x32, 0x64, 0x2f,
  0x42, 0x69, 0x61, 0x73, 0x41, 0x64, 0x64, 0x2f, 0x52, 0x65, 0x61, 0x64,
  0x56, 0x61, 0x72, 0x69, 0x61, 0x62, 0x6c, 0x65, 0x4f, 0x70, 0x2f, 0x72,
  0x65, 0x73, 0x6f, 0x75, 0x72, 0x63, 0x65, 0x00, 0x04, 0x00, 0x00, 0x00,
  0xff, 0xff, 0xff, 0xff, 0x40, 0x00, 0x00, 0x00, 0x03, 0x00, 0x00, 0x00,
  0x08, 0x00, 0x00, 0x00, 0x00, 0xd5, 0xff, 0xff, 0x0a, 0xd6, 0xff, 0xff,
  0x04, 0x00, 0x00, 0x00, 0x00, 0x08, 0x00, 0x00, 0xe9, 0xf1, 0xb7, 0xbe,
  0x72, 0x29, 0x7c, 0xbd, 0xde, 0x4e, 0x0c, 0xbe, 0x80, 0x33, 0x45, 0x3d,
  0xd7, 0x22, 0x8a, 0xbe, 0x4f, 0xbe, 0x21, 0x3d, 0x0b, 0x33, 0xc0, 0xbe,
  0xed, 0x52, 0x96, 0x3e, 0x91, 0x77, 0x79, 0xbd, 0x45, 0x53, 0x32, 0xbd,
  0xab, 0xaa, 0xf8, 0xbe, 0xf0, 0xb6, 0x1a, 0x3e, 0x14, 0x8c, 0xd6, 0xbe,
  0x10, 0x69, 0xef, 0x3e, 0xbb, 0x68, 0x90, 0xbe, 0x19, 0xa3, 0xf5, 0xbb,
  0x53, 0x40, 0x91, 0x3e, 0x3e, 0x31, 0x0e, 0xbd, 0x1b, 0x92, 0xa6, 0xbc,
  0xd9, 0x10, 0x7c, 0x3e, 0x0b, 0x21, 0x8f, 0xbe, 0x39, 0x92, 0x3c, 0xbe,
  0x97, 0x87, 0x9d, 0xbd, 0xaa, 0x63, 0x1e, 0xbe, 0x09, 0x79, 0x36, 0x39,
  0x0a, 0xab, 0xb2, 0xbd, 0x8f, 0xcb, 0x1c, 0x3e, 0x2f, 0x9c, 0x50, 0xbe,
  0x8e, 0x8d, 0x5f, 0x3b, 0xaa, 0xc3, 0x2f, 0xbe, 0x1c, 0x08, 0x1c, 0x3d,
  0x57, 0xec, 0x46, 0xbd, 0x1d, 0x17, 0xc0, 0xbd, 0xbf, 0x96, 0xc0, 0xbd,
  0x93, 0xe2, 0x92, 0xbf, 0x2a, 0x9e, 0x63, 0x3e, 0x35, 0xce, 0x30, 0x3b,
  0xdf, 0xa4, 0x51, 0x3d, 0x97, 0x54, 0x33, 0xbd, 0x94, 0x42, 0x0c, 0x3f,
  0x8f, 0xe7, 0x97, 0xbe, 0x18, 0xfd, 0x0a, 0xbe, 0xb3, 0x67, 0xad, 0xbf,
  0x90, 0x04, 0x5d, 0x3e, 0x5f, 0xfb, 0x47, 0x3d, 0x5c, 0x4f, 0x4c, 0x3d,
  0x52, 0x47, 0xf2, 0x3b, 0xcf, 0xc4, 0xdd, 0x3e, 0x3a, 0x7f, 0xa9, 0x3d,
  0xe1, 0x0f, 0x0e, 0xbe, 0xce, 0xa3, 0x06, 0xc0, 0x91, 0x48, 0xc6, 0x3e,
  0x1b, 0xb2, 0x96, 0x3c, 0x21, 0xdc, 0x4c, 0x3d, 0xe0, 0x18, 0x3b, 0xba,
  0xce, 0x74, 0xa9, 0xbe, 0x9a, 0x7a, 0xc5, 0x3e, 0xca, 0x42, 0xcf, 0xbd,
  0xdd, 0x3b, 0xf4, 0xbf, 0x84, 0xc8, 0x02, 0x3f, 0x97, 0x12, 0xcc, 0xbb,
  0xc9, 0x8f, 0x1c, 0x3e, 0x6e, 0x0e, 0x43, 0x3d, 0xb8, 0x12, 0xb0, 0xbf,
  0xfd, 0xcf, 0x74, 0xbe, 0x04, 0x28, 0x31, 0x3c, 0xbe, 0xba, 0xc1, 0xbd,
  0x9d, 0xe7, 0xeb, 0x3b, 0xbf, 0x2a, 0x95, 0x3d, 0xcf, 0xbc, 0xa1, 0xbd,
  0xb9, 0xc4, 0x85, 0xbe, 0x03, 0x58, 0xc8, 0xbe, 0x94, 0x1f, 0xa7, 0xbd,
  0x26, 0xeb, 0xaa, 0x3d, 0x81, 0xb2, 0x61, 0xbd, 0x82, 0x95, 0x6c, 0x3e,
  0x58, 0xb1, 0x5e, 0xbd, 0x5e, 0x65, 0xc8, 0xbd, 0x61, 0x49, 0x34, 0xbe,
  0x96, 0x03, 0xff, 0xbe, 0x15, 0xa6, 0xcc, 0x3e, 0xcb, 0x7a, 0x9f, 0x3c,
  0x35, 0x16, 0x04, 0x3e, 0x50, 0x7b, 0x2a, 0x3e, 0xb5, 0xf8, 0xfb, 0xbd,
  0x31, 0x07, 0x62, 0xbe, 0x47, 0xd5, 0xb2, 0x3e, 0x95, 0x82, 0x29, 0xbd,
  0xa2, 0xfd, 0xeb, 0xbd, 0x3a, 0x48, 0x4b, 0xbe, 0x63, 0x6b, 0x81, 0xbc,
  0x68, 0xd2, 0xf4, 0x3d, 0x15, 0xbe, 0x6e, 0xbe, 0x75, 0x7e, 0x30, 0xbe,
  0x3e, 0x29, 0x6b, 0xbd, 0x30, 0xb9, 0xcb, 0x3d, 0xf0, 0xde, 0x0d, 0xbe,
  0x7e, 0x77, 0x31, 0xbd, 0xb7, 0x50, 0xa0, 0xbd, 0xf7, 0xe1, 0x9e, 0x3d,
  0x8e, 0x1e, 0x83, 0xbd, 0x05, 0x34, 0x3f, 0xbe, 0x8d, 0x59, 0x40, 0x3d,
  0x2e, 0xfc, 0xa2, 0xbb, 0x15, 0x0b, 0x44, 0xbe, 0x95, 0xed, 0x78, 0xbc,
  0x37, 0xc3, 0x38, 0xbd, 0xa9, 0x91, 0x41, 0xbd, 0xc0, 0xe5, 0x34, 0xbd,
  0x5a, 0x7b, 0x06, 0xbe, 0x19, 0xb0, 0x9f, 0xbe, 0x14, 0x73, 0x16, 0xbe,
  0x95, 0x2a, 0xba, 0xbd, 0xea, 0x75, 0xac, 0xbe, 0xdd, 0x8a, 0x9a, 0xbe,
  0x66, 0xcf, 0xe6, 0xbc, 0xf8, 0xda, 0x84, 0xbe, 0xd2, 0x09, 0x91, 0xbe,
  0xeb, 0x09, 0xba, 0xbc, 0x71, 0xc8, 0x85, 0xbe, 0x89, 0x87, 0x9a, 0xbe,
  0x1a, 0xcf, 0x84, 0xbd, 0xb1, 0x26, 0x07, 0x3e, 0x0a, 0x24, 0x3c, 0xbe,
  0xa1, 0x19, 0x3b, 0x3d, 0x10, 0x28, 0x22, 0xbe, 0xe1, 0x3e, 0x36, 0xbe,
  0x45, 0x33, 0x81, 0xbe, 0x91, 0x48, 0x62, 0xbd, 0x4d, 0x01, 0xee, 0xbc,
  0xfa, 0x32, 0xf0, 0xbe, 0x04, 0x95, 0x1f, 0x3f, 0x7d, 0x55, 0xa6, 0xbe,
  0x8a, 0x54, 0xda, 0x3e, 0x0b, 0x14, 0x8a, 0xbe, 0xd9, 0x62, 0x96, 0xbe,
  0x5e, 0x1b, 0xbc, 0xbd, 0x08, 0x27, 0xea, 0xbd, 0x24, 0x56, 0x9f, 0xbd,
  0x8c, 0x07, 0x7c, 0x3e, 0x94, 0x87, 0x87, 0xbe, 0xf8, 0xa1, 0xac, 0xbe,
  0xfa, 0xb8, 0x70, 0xbd, 0xbf, 0xb7, 0xa8, 0xbe, 0x79, 0x31, 0x18, 0xbc,
  0x2f, 0xaa, 0x58, 0xbd, 0x5b, 0xff, 0x04, 0x3d, 0x4f, 0x75, 0xfd, 0xbb,
  0xf1, 0x31, 0x9c, 0x3c, 0x6d, 0x18, 0x3b, 0xbe, 0xd0, 0x5f, 0xc2, 0xbc,
  0xed, 0x74, 0x2c, 0x3d, 0xb8, 0xf4, 0xa0, 0xbe, 0xde, 0x95, 0x07, 0xbe,
  0x5b, 0x20, 0xfc, 0x3d, 0x81, 0x93, 0x96, 0xbd, 0x36, 0x5f, 0x10, 0x3e,
  0x48, 0x66, 0x19, 0xbe, 0x50, 0xd1, 0x01, 0xbe, 0x10, 0xf1, 0x7d, 0x3d,
  0x4e, 0xa3, 0x95, 0xbf, 0x14, 0x49, 0x8e, 0x3c, 0x7d, 0x68, 0x85, 0xbe,
  0xf4, 0x3e, 0x18, 0xbf, 0x43, 0x66, 0x31, 0x3d, 0xa4, 0x50, 0x86, 0x3d,
  0x07, 0x7f, 0x15, 0x3d, 0x05, 0x90, 0x06, 0xbe, 0xbf, 0x5e, 0x3c, 0xbe,
  0x3f, 0x9e, 0x72, 0x3d, 0x25, 0x7f, 0x85, 0xbe, 0x83, 0x6c, 0xb4, 0x3d,
  0xb0, 0xd9, 0x31, 0x3d, 0x25, 0x8b, 0xf8, 0x3d, 0xdd, 0x58, 0x25, 0x3d,
  0x93, 0xbb, 0xb8, 0xbe, 0x5c, 0x6e, 0x88, 0x3d, 0xfc, 0x56, 0xc6, 0xbd,
  0x93, 0xaf, 0x00, 0x3c, 0x52, 0xe2, 0x4b, 0xbf, 0x29, 0xd8, 0xdf, 0x3d,
  0x17, 0x49, 0x39, 0x3e, 0x7a, 0xed, 0x42, 0x3d, 0x4d, 0x27, 0xd9, 0xbe,
  0xc0, 0x18, 0x1b, 0xbf, 0x1f, 0x65, 0x83, 0xbe, 0x60, 0x71, 0x21, 0x3e,
  0x3f, 0xf8, 0x73, 0xbf, 0xfe, 0x73, 0xb0, 0xbd, 0x84, 0x47, 0x3f, 0xbe,
  0xa8, 0xf3, 0xdd, 0xbd, 0x1b, 0xf8, 0x97, 0xbe, 0xa8, 0x9b, 0x47, 0xbd,
  0x90, 0x7f, 0x47, 0xbd, 0x1e, 0x61, 0x74, 0xbe, 0x3a, 0xdf, 0xd9, 0x3d,
  0x87, 0x8f, 0x1b, 0x3d, 0xab, 0x2b, 0x83, 0x3e, 0x61, 0xe3, 0x98, 0x3d,
  0x85, 0x7e, 0x8d, 0xbe, 0x47, 0x3d, 0x9e, 0x3c, 0xe1, 0x49, 0x71, 0x3d,
  0x38, 0x09, 0x4f, 0xbe, 0xe0, 0x7e, 0x25, 0xbd, 0xbd, 0xf0, 0x6e, 0x3b,
  0xc9, 0x72, 0xd7, 0x3d, 0x1f, 0x29, 0x8a, 0x3d, 0x1f, 0xb7, 0x1e, 0xbe,
  0x4a, 0x9e, 0x19, 0x3c, 0x51, 0xdd, 0x53, 0xbe, 0x79, 0x5d, 0x3f, 0xbe,
  0xb4, 0x3f, 0x87, 0x3e, 0x06, 0xfa, 0x45, 0xbd, 0x6a, 0x16, 0x58, 0xbd,
  0x69, 0x5e, 0x93, 0xb9, 0xcf, 0x52, 0x42, 0xbe, 0x17, 0x44, 0x36, 0x3d,
  0x82, 0x88, 0x6e, 0xbe, 0x57, 0xea, 0x8e, 0xbd, 0x54, 0x25, 0xa5, 0x3c,
  0x56, 0x26, 0x29, 0x3d, 0xcf, 0x6f, 0x44, 0xbd, 0xbb, 0x2e, 0xb4, 0x3d,
  0x80, 0xed, 0x2b, 0xbc, 0x4c, 0x5a, 0x6c, 0x3e, 0x7e, 0xf9, 0x68, 0x3c,
  0x37, 0xf0, 0x37, 0xbe, 0x4f, 0x5a, 0xa0, 0x3e, 0xd1, 0x12, 0x51, 0xbe,
  0xd6, 0x4a, 0x24, 0xbc, 0x1e, 0xdd, 0xa9, 0xbe, 0x19, 0xcc, 0x02, 0x3f,
  0x0e, 0x3d, 0x6f, 0x3e, 0xc9, 0xf4, 0x2c, 0xba, 0x66, 0xa8, 0x40, 0xbe,
  0x48, 0x09, 0x27, 0x3e, 0x58, 0x88, 0x9b, 0xbe, 0x7f, 0x88, 0x87, 0x3d,
  0x7a, 0xcd, 0x65, 0xbe, 0xb3, 0xf9, 0x6b, 0xbe, 0xe1, 0xe1, 0xa5, 0x3d,
  0x7b, 0x34, 0x98, 0xbd, 0xb9, 0x28, 0xc2, 0xbd, 0x6d, 0xc0, 0x7e, 0x3e,
  0xd3, 0x36, 0x88, 0xbe, 0x37, 0x43, 0xae, 0xbd, 0xac, 0xca, 0x23, 0xbe,
  0x50, 0x9a, 0xdf, 0x3d, 0x12, 0xab, 0xdf, 0x3e, 0x59, 0x33, 0x97, 0xbd,
  0xcf, 0x8c, 0x99, 0xbd, 0xdc, 0x6d, 0x6c, 0xbd, 0x6e, 0x5a, 0x94, 0xbe,
  0x47, 0x03, 0x9f, 0xbd, 0xab, 0x65, 0x14, 0xbe, 0x98, 0x62, 0x6c, 0x3e,
  0x20, 0x50, 0xa3, 0xbe, 0xc3, 0x4b, 0xdc, 0xbd, 0xac, 0xfc, 0xb9, 0xbd,
  0xb2, 0x52, 0xdc, 0xbe, 0x18, 0xa0, 0x91, 0xbc, 0xdd, 0xe6, 0x10, 0xbe,
  0xc3, 0x01, 0x96, 0xbe, 0x15, 0xbe, 0x9a, 0xbe, 0x43, 0xc7, 0xd4, 0xbe,
  0xbf, 0x0e, 0x2c, 0xbd, 0x1e, 0xe2, 0x97, 0xbd, 0xc1, 0xf3, 0x2a, 0xbe,
  0xf2, 0x23, 0x4a, 0xbc, 0xf7, 0x30, 0x8b, 0xbd, 0xee, 0x53, 0x85, 0xbe,
  0x23, 0x7c, 0xdc, 0xbd, 0x04, 0x51, 0xc1, 0xbd, 0x41, 0x1b, 0x28, 0xbd,
  0x84, 0x31, 0xb3, 0xbd, 0x62, 0xed, 0x9b, 0x3d, 0xa4, 0x96, 0xc1, 0xbc,
  0x56, 0x50, 0x21, 0x3e, 0xb4, 0x46, 0x87, 0xbe, 0x06, 0x0e, 0x92, 0xbb,
  0x6b, 0x5f, 0x1f, 0x3e, 0xf4, 0x88, 0x96, 0x3b, 0x48, 0x39, 0x07, 0xbe,
  0x3d, 0x10, 0xfa, 0x3d, 0x0d, 0x13, 0x35, 0xbc, 0xa8, 0x95, 0xcd, 0x3d,
  0x75, 0x31, 0x42, 0xbe, 0x8c, 0x0b, 0x24, 0x3f, 0x46, 0xdd, 0x24, 0x3e,
  0x25, 0x53, 0xfc, 0x3d, 0xc4, 0x16, 0x85, 0xbd, 0x22, 0x9c, 0x8e, 0x3d,
  0xdb, 0x03, 0x8c, 0xbd, 0x2a, 0x51, 0x09, 0x3d, 0x39, 0xfd, 0x31, 0xbd,
  0x99, 0x9e, 0xef, 0xbc, 0xd2, 0xd4, 0x51, 0xbe, 0x72, 0xc4, 0x1f, 0xbd,
  0x82, 0xb8, 0x4d, 0x3d, 0xe9, 0x8c, 0x70, 0xbd, 0x72, 0x5a, 0x68, 0x3d,
  0x7c, 0xad, 0xeb, 0xbc, 0x03, 0x57, 0x2c, 0xbd, 0x6f, 0xd0, 0xaa, 0x3d,
  0xbf, 0xe1, 0x5b, 0x3d, 0x2b, 0xc3, 0x82, 0x3c, 0x28, 0xa6, 0x31, 0x3d,
  0x37, 0x28, 0x9b, 0xbe, 0xf8, 0xc1, 0xe5, 0x3c, 0x32, 0x9a, 0xbb, 0xbc,
  0x1e, 0x08, 0x76, 0x3d, 0x1f, 0x91, 0xeb, 0x3d, 0xb2, 0x76, 0x09, 0x3d,
  0xd1, 0xfd, 0x3f, 0x3e, 0x4d, 0xa5, 0xd3, 0x3d, 0x35, 0x2e, 0x12, 0xbe,
  0x0c, 0x46, 0x94, 0xbd, 0xda, 0x0a, 0x85, 0xbd, 0x3e, 0x91, 0xbd, 0xbd,
  0xf2, 0xd6, 0xdf, 0xbd, 0xf9, 0x24, 0x7c, 0xbc, 0x6e, 0x7d, 0x37, 0x3e,
  0x98, 0xa7, 0x68, 0x3c, 0x10, 0x27, 0x82, 0x3e, 0x79, 0xde, 0x34, 0x3e,
  0xfe, 0xed, 0x39, 0xbf, 0xff, 0xf3, 0x8d, 0x3e, 0x7b, 0xc5, 0xbf, 0xbe,
  0x4e, 0x54, 0x9f, 0x3d, 0x48, 0x48, 0x29, 0xbc, 0x4b, 0x71, 0x4d, 0xbd,
  0xa8, 0xb0, 0xab, 0x3d, 0xff, 0x77, 0x3b, 0xbe, 0x99, 0xe6, 0x21, 0xbf,
  0x4f, 0x8c, 0x5c, 0x3d, 0x08, 0x45, 0x6e, 0x3c, 0x52, 0xff, 0xfb, 0xbd,
  0xbd, 0xeb, 0xa5, 0xbe, 0xa3, 0x6d, 0x92, 0x3c, 0x04, 0x72, 0xa4, 0x3e,
  0xae, 0x3e, 0xd0, 0xbe, 0xa9, 0x5f, 0x6f, 0xbe, 0xe2, 0xef, 0x65, 0xbd,
  0x18, 0xa7, 0x14, 0x3e, 0x97, 0x51, 0x98, 0xbe, 0x63, 0x7a, 0xf6, 0xbe,
  0x4b, 0xb4, 0x69, 0xbd, 0x50, 0x9d, 0x4f, 0x3e, 0x89, 0x52, 0xda, 0xbe,
  0x19, 0x71, 0x03, 0x3e, 0x77, 0x73, 0x18, 0xbe, 0xef, 0xbc, 0xa4, 0x3d,
  0xb7, 0x12, 0xb8, 0xbe, 0xf1, 0xaa, 0x00, 0xbf, 0x41, 0x30, 0x43, 0xbe,
  0xdd, 0xe9, 0x2b, 0xbf, 0x4e, 0x8b, 0x09, 0xbf, 0x2a, 0x2c, 0x0e, 0xbf,
  0xde, 0x8d, 0x17, 0xbf, 0x3d, 0x2a, 0x3c, 0xbf, 0xa0, 0xdc, 0x95, 0x3d,
  0x9b, 0x48, 0x98, 0x3d, 0xb1, 0xfd, 0x87, 0x3d, 0x8f, 0x6d, 0xd8, 0xbd,
  0xf4, 0xe4, 0x75, 0xbc, 0xc6, 0x4c, 0xd3, 0x3d, 0xe5, 0x03, 0x1e, 0x3d,
  0x7a, 0xf0, 0xb1, 0xbd, 0x3f, 0xa1, 0x64, 0xbe, 0xb4, 0x16, 0x04, 0x3d,
  0x9d, 0xd0, 0x60, 0x3d, 0xd4, 0x64, 0x1a, 0xbf, 0xa8, 0x1a, 0x0c, 0x3d,
  0x13, 0x8d, 0x76, 0xbd, 0x22, 0x37, 0xc4, 0x3d, 0xa3, 0x84, 0x0a, 0xbe,
  0x23, 0x81, 0xb2, 0xbd, 0x19, 0xfc, 0x55, 0x3d, 0x75, 0x55, 0x5b, 0x3d,
  0x17, 0x4c, 0xdb, 0xbe, 0xd1, 0xc1, 0x92, 0x3c, 0xbf, 0xf8, 0x6d, 0xbd,
  0xfb, 0x1b, 0x46, 0x3d, 0x79, 0xb5, 0x9e, 0x3d, 0x63, 0xa1, 0xb0, 0xbe,
  0xa0, 0xd4, 0xbe, 0xbd, 0xd7, 0x01, 0x0a, 0xbe, 0xc7, 0x1a, 0x63, 0x3c,
  0x75, 0xba, 0x47, 0xbe, 0x7a, 0xec, 0xd5, 0xbd, 0xd5, 0x6e, 0x09, 0xbf,
  0xc6, 0x8c, 0x34, 0x3d, 0xda, 0x13, 0xea, 0xbe, 0x47, 0x20, 0x8b, 0xbd,
  0x7a, 0x1b, 0x2c, 0xbf, 0x8b, 0x10, 0xd6, 0x3d, 0x5c, 0x47, 0xfa, 0xbe,
  0x5a, 0xc5, 0x8c, 0x3e, 0x22, 0x2b, 0x31, 0xbf, 0x69, 0xb5, 0xfc, 0x3d,
  0x2d, 0x24, 0x9b, 0x3e, 0xb9, 0xc6, 0x77, 0xbd, 0xb0, 0xe8, 0x08, 0xbe,
  0xc7, 0x4d, 0x15, 0x3e, 0xb9, 0xff, 0xbf, 0xbe, 0x21, 0x44, 0x8c, 0xbe,
  0x98, 0x1e, 0x18, 0xbd, 0xdc, 0x46, 0x3a, 0xbe, 0xbc, 0x8e, 0x83, 0x3e,
  0xb8, 0x4f, 0x7c, 0x3b, 0x91, 0xfa, 0x25, 0x3e, 0xfa, 0x6f, 0x2d, 0x3e,
  0x5d, 0x84, 0xc2, 0xbd, 0x30, 0x63, 0x24, 0xbf, 0xf7, 0xfc, 0xb4, 0x3d,
  0x27, 0xe7, 0x37, 0xbd, 0xf3, 0xd2, 0xde, 0xbd, 0x65, 0xf8, 0xb6, 0xbe,
  0xfd, 0x4e, 0x47, 0xbd, 0x1e, 0xda, 0x7e, 0x3d, 0x1b, 0x10, 0x95, 0xbc,
  0x71, 0x32, 0x2c, 0xbe, 0xe8, 0xc9, 0xe7, 0x3c, 0x3d, 0xeb, 0xa9, 0xbd,
  0x3d, 0xbf, 0x0d, 0x3e, 0x2c, 0xc2, 0xb2, 0xbe, 0x31, 0xdd, 0x02, 0xbd,
  0x69, 0xeb, 0x6a, 0xbc, 0xa8, 0x37, 0x66, 0xbd, 0xd7, 0xeb, 0xfc, 0xbd,
  0x51, 0xf5, 0x70, 0x3e, 0x40, 0xcf, 0xfa, 0x3d, 0xb4, 0xee, 0xa7, 0xbd,
  0x6e, 0xab, 0xbb, 0xbe, 0x17, 0xcc, 0xf1, 0xbc, 0x1d, 0xea, 0xfc, 0xbd,
  0xc6, 0x66, 0x2a, 0xbd, 0x38, 0x87, 0x16, 0xbe, 0xd4, 0x1a, 0x6e, 0xbd,
  0xd7, 0x3c, 0xab, 0xbd, 0xf0, 0x43, 0xed, 0x3b, 0xf9, 0x72, 0xa1, 0xbe,
  0xfc, 0x21, 0x20, 0x3e, 0xbf, 0x0a, 0x94, 0xbd, 0x26, 0xe3, 0x41, 0x3d,
  0xd8, 0x8e, 0x33, 0xbe, 0x8f, 0x22, 0xaf, 0x3d, 0x3e, 0xcd, 0x23, 0xbe,
  0x82, 0x5b, 0x05, 0xbf, 0x38, 0xc0, 0x0d, 0xbd, 0x29, 0x32, 0x94, 0xbd,
  0x22, 0x10, 0x0a, 0xbe, 0xd1, 0x13, 0x44, 0x3d, 0xee, 0xcd, 0x45, 0x3c,
  0x41, 0xf8, 0x92, 0xbe, 0x8a, 0x17, 0xab, 0xbd, 0xc4, 0x9d, 0x2a, 0xbf,
  0x9e, 0x48, 0x6b, 0x3c, 0x7e, 0xd5, 0x79, 0xbe, 0x6c, 0xae, 0x36, 0xbd,
  0x5d, 0xf1, 0x88, 0xbe, 0x0a, 0x3e, 0x33, 0xbd, 0x42, 0xe1, 0xff, 0xbe,
  0x58, 0x51, 0x2d, 0x3f, 0x54, 0xe7, 0xf2, 0x3d, 0x02, 0xdd, 0x38, 0x3c,
  0x08, 0x73, 0x7b, 0xbe, 0x8e, 0x81, 0xc2, 0x3d, 0x20, 0xe1, 0xb0, 0xbe,
  0xd1, 0xc7, 0xb7, 0xbd, 0x4a, 0x76, 0x2b, 0xbe, 0x55, 0x02, 0xa2, 0xbe,
  0xfe, 0xfc, 0x95, 0x3e, 0xe1, 0x3f, 0x08, 0x3d, 0x05, 0xe8, 0xd1, 0x3d,
  0x6b, 0xfe, 0x16, 0x3d, 0x04, 0x58, 0x6d, 0xbe, 0x64, 0x3d, 0xe5, 0xbd,
  0x77, 0x49, 0x6a, 0xbd, 0x51, 0x5b, 0x28, 0xbe, 0xdb, 0x9e, 0xdc, 0xbd,
  0x8f, 0xe0, 0x62, 0xbe, 0x61, 0xc0, 0xb5, 0x3e, 0x11, 0x90, 0xd9, 0x3e,
  0x3e, 0x2d, 0x81, 0xbe, 0x72, 0x51, 0x22, 0xbe, 0xe8, 0x15, 0x7d, 0x3e,
  0xe6, 0x3d, 0x6d, 0x3e, 0x36, 0x87, 0xda, 0xbe, 0x8b, 0x24, 0x54, 0xbe,
  0x40, 0x4c, 0xeb, 0xbd, 0x0b, 0x45, 0x3c, 0x3d, 0xa3, 0x7b, 0x8f, 0xbe,
  0xdf, 0xb2, 0x8c, 0xbe, 0x20, 0x88, 0x1f, 0xbe, 0x65, 0x7e, 0x0e, 0xbe,
  0x16, 0x5f, 0xa4, 0xbe, 0x9b, 0x48, 0xbc, 0xbd, 0x69, 0xa5, 0x04, 0xbe,
  0x82, 0x0f, 0x6a, 0x3e, 0xeb, 0x34, 0xdb, 0xbd, 0x5d, 0x00, 0x16, 0xbd,
  0xa5, 0x09, 0x41, 0xbe, 0xe4, 0x1f, 0xdb, 0xbc, 0xe3, 0xca, 0x7e, 0xbe,
  0x51, 0x85, 0x1b, 0x3e, 0x46, 0x88, 0x06, 0xbe, 0xad, 0xac, 0xfc, 0x3d,
  0xe2, 0x7b, 0xc5, 0x3e, 0xd7, 0x5f, 0x94, 0x3e, 0x34, 0x8a, 0x89, 0xbe,
  0x0e, 0xed, 0x27, 0xbd, 0xe2, 0xdd, 0xff, 0xff, 0x10, 0x00, 0x00, 0x00,
  0x0a, 0x00, 0x00, 0x00, 0x1c, 0x00, 0x00, 0x00, 0x38, 0x00, 0x00, 0x00,
  0x04, 0x00, 0x00, 0x00, 0x10, 0x00, 0x00, 0x00, 0x04, 0x00, 0x00, 0x00,
  0x01, 0x00, 0x00, 0x00, 0x08, 0x00, 0x00, 0x00, 0x1a, 0x00, 0x00, 0x00,
  0x73, 0x65, 0x71, 0x75, 0x65, 0x6e, 0x74, 0x69, 0x61, 0x6c, 0x2f, 0x63,
  0x6f, 0x6e, 0x76, 0x32, 0x64, 0x5f, 0x31, 0x2f, 0x43, 0x6f, 0x6e, 0x76,
  0x32, 0x44, 0x00, 0x00, 0x58, 0xdd, 0xff, 0xff, 0x62, 0xde, 0xff, 0xff,
  0x04, 0x00, 0x00, 0x00, 0x80, 0x01, 0x00, 0x00, 0x78, 0x0f, 0x4f, 0x3e,
  0xa2, 0x92, 0xde, 0x3e, 0xa2, 0xd6, 0x93, 0x3e, 0x4b, 0xa4, 0xcd, 0x3d,
  0xe4, 0xeb, 0x8f, 0xbe, 0x33, 0x34, 0x7e, 0xbe, 0xc1, 0xa0, 0xd4, 0xbe,
  0x75, 0x06, 0x3d, 0xbe, 0x6a, 0x35, 0x61, 0x3c, 0x3e, 0xc4, 0xdf, 0x3d,
  0x68, 0xc7, 0x29, 0xbd, 0x6d, 0x12, 0x42, 0xbe, 0x9f, 0x29, 0x01, 0x3f,
  0x5f, 0x1a, 0x25, 0xbd, 0x7a, 0x9b, 0xd9, 0x3d, 0xfe, 0xf5, 0x43, 0x3c,
  0xe6, 0x45, 0x0d, 0x3e, 0x7b, 0x20, 0x0d, 0xbe, 0x6b, 0x57, 0x07, 0x3e,
  0xce, 0xff, 0x07, 0x3d, 0x02, 0x22, 0x07, 0x3d, 0x2c, 0x58, 0xcb, 0x3e,
  0xf2, 0x8e, 0xe0, 0xbd, 0x04, 0x7c, 0x80, 0xbe, 0x79, 0xc9, 0xa4, 0x3d,
  0xc2, 0xf4, 0x13, 0xbf, 0x02, 0xe3, 0xf3, 0xbd, 0x85, 0x3e, 0xf0, 0xbd,
  0x71, 0x6f, 0x9c, 0x3c, 0xdf, 0xd7, 0x50, 0xbd, 0x23, 0xb9, 0x3c, 0xbe,
  0xa3, 0xc5, 0xd4, 0xbc, 0xbd, 0xf0, 0xa6, 0x3d, 0x1d, 0x19, 0xd1, 0xbd,
  0x6c, 0xaf, 0x6b, 0xbd, 0x82, 0x8a, 0xf9, 0x3b, 0x8c, 0x27, 0xba, 0xbe,
  0x25, 0xb7, 0xca, 0x3d, 0xe3, 0xf0, 0x3a, 0x3e, 0xc2, 0x26, 0x7f, 0xbe,
  0x0b, 0x99, 0x71, 0x3e, 0xe5, 0xfa, 0x44, 0x3e, 0x64, 0x96, 0x9b, 0x3e,
  0x68, 0x45, 0x3e, 0xbd, 0xca, 0x80, 0xbe, 0xbd, 0x62, 0xc2, 0x9c, 0x3e,
  0x5e, 0x6a, 0xa8, 0xbe, 0x95, 0x4e, 0x9d, 0xbe, 0x59, 0x4b, 0x23, 0x3d,
  0x1f, 0x77, 0x9b, 0xbd, 0x7d, 0x00, 0xd3, 0xbd, 0x0a, 0x3a, 0x15, 0xbd,
  0x98, 0x15, 0xbb, 0x3c, 0x40, 0x1a, 0x8a, 0x3c, 0x40, 0x6a, 0xa5, 0xbd,
  0x88, 0x6c, 0x47, 0x3d, 0x83, 0xad, 0x51, 0x3c, 0x16, 0x2b, 0xf2, 0x3c,
  0x5f, 0xc4, 0xec, 0x3d, 0x74, 0xfa, 0x7f, 0xbe, 0x50, 0x03, 0xfa, 0xbd,
  0xdb, 0xf6, 0xfe, 0xbd, 0x88, 0x4a, 0x6a, 0x3d, 0xcd, 0xef, 0xa0, 0x3e,
  0x80, 0x54, 0x7c, 0xbe, 0x2c, 0x46, 0xae, 0xbd, 0xfc, 0xce, 0xf5, 0xbc,
  0x45, 0xf1, 0x22, 0x3e, 0x67, 0xac, 0x25, 0x3d, 0x44, 0x83, 0xa7, 0x3e,
  0x85, 0x33, 0x06, 0x3e, 0x10, 0x1d, 0x48, 0x3d, 0xe9, 0x36, 0x36, 0x3e,
  0x05, 0xcb, 0x4f, 0xbe, 0x61, 0xbe, 0x78, 0x3c, 0x99, 0x36, 0x88, 0xbd,
  0x53, 0x61, 0x09, 0xbe, 0xae, 0xd9, 0x88, 0x3d, 0x00, 0xfd, 0xea, 0xbd,
  0xcd, 0xd4, 0x63, 0x3d, 0xce, 0xe8, 0xaa, 0x3c, 0x9b, 0xd7, 0x11, 0xbe,
  0xf5, 0x4e, 0x81, 0x3d, 0xc7, 0x3b, 0x52, 0xbb, 0x0d, 0x7a, 0x04, 0xbd,
  0x47, 0xe3, 0x15, 0xbe, 0x36, 0x89, 0xd7, 0xbd, 0x8a, 0xe6, 0x8c, 0xbe,
  0x03, 0xa2, 0xfa, 0xbe, 0x86, 0xcf, 0x62, 0xbe, 0x9e, 0xd7, 0x06, 0x3e,
  0xd5, 0xcc, 0x1a, 0x3d, 0x63, 0xb8, 0x74, 0x3d, 0x38, 0x52, 0x9a, 0x3e,
  0x62, 0xf5, 0xe9, 0x3e, 0x51, 0xff, 0x77, 0x3e, 0xba, 0xdf, 0xff, 0xff,
  0x10, 0x00, 0x00, 0x00, 0x09, 0x00, 0x00, 0x00, 0x1c, 0x00, 0x00, 0x00,
  0x38, 0x00, 0x00, 0x00, 0x04, 0x00, 0x00, 0x00, 0x08, 0x00, 0x00, 0x00,
  0x04, 0x00, 0x00, 0x00, 0x03, 0x00, 0x00, 0x00, 0x01, 0x00, 0x00, 0x00,
  0x18, 0x00, 0x00, 0x00, 0x73, 0x65, 0x71, 0x75, 0x65, 0x6e, 0x74, 0x69,
  0x61, 0x6c, 0x2f, 0x63, 0x6f, 0x6e, 0x76, 0x32, 0x64, 0x2f, 0x43, 0x6f,
  0x6e, 0x76, 0x32, 0x44, 0x00, 0x00, 0x00, 0x00, 0x30, 0xdf, 0xff, 0xff,
  0x3a, 0xe0, 0xff, 0xff, 0x04, 0x00, 0x00, 0x00, 0x00, 0x01, 0x00, 0x00,
  0x63, 0x2e, 0xca, 0x3e, 0x7e, 0x9f, 0xa5, 0x3e, 0x92, 0xd1, 0x23, 0x3d,
  0xdc, 0x0a, 0x95, 0x3e, 0xeb, 0x1c, 0xf7, 0xbd, 0x09, 0x18, 0xbb, 0xbd,
  0x56, 0xed, 0xac, 0xbe, 0x83, 0xcc, 0xfd, 0xbe, 0x80, 0x97, 0xac, 0xbe,
  0x8f, 0x8b, 0xda, 0x3e, 0x1c, 0x9e, 0x43, 0xbe, 0xd8, 0xd6, 0xd4, 0x3d,
  0xec, 0xda, 0xac, 0x3e, 0x6e, 0x37, 0x94, 0x3e, 0x4a, 0x34, 0x85, 0x3e,
  0x9a, 0x43, 0x07, 0x3d, 0xf9, 0x06, 0xcd, 0xbe, 0x8f, 0x8e, 0x34, 0x3d,
  0x6f, 0xf2, 0x85, 0x3e, 0xe1, 0x3d, 0xa6, 0x3e, 0xac, 0x54, 0x2f, 0xbe,
  0x55, 0xd3, 0xde, 0xbc, 0x79, 0xc3, 0x16, 0x3e, 0x85, 0x2e, 0x17, 0xbe,
  0x48, 0x2e, 0xa3, 0xbe, 0x9b, 0x65, 0xe5, 0x3e, 0x3b, 0x73, 0x6f, 0xbe,
  0x28, 0x6c, 0xea, 0x3d, 0xd2, 0xc5, 0xaf, 0x3e, 0xd4, 0x9c, 0x83, 0x3e,
  0x96, 0xc1, 0xaa, 0x3e, 0xdc, 0x83, 0x63, 0xbf, 0xfb, 0x0e, 0x30, 0xbf,
  0xd1, 0x03, 0x02, 0xbf, 0x00, 0xdb, 0x98, 0x3e, 0x35, 0x6b, 0x57, 0x3c,
  0xd2, 0x13, 0x0d, 0xbf, 0x88, 0xf0, 0x63, 0xbe, 0x06, 0xba, 0x1a, 0x3e,
  0x40, 0x05, 0x7a, 0xbe, 0xc6, 0x69, 0x5e, 0xbe, 0x0f, 0xf4, 0xda, 0x3b,
  0x4e, 0x25, 0xa6, 0xbe, 0xaf, 0x64, 0x8a, 0x3e, 0x2a, 0x80, 0x99, 0x3e,
  0x42, 0x17, 0xb3, 0xbd, 0xb2, 0x92, 0xb3, 0x3d, 0x0e, 0x33, 0x09, 0xbe,
  0x69, 0x4a, 0x0e, 0xbf, 0xed, 0x98, 0xcb, 0xbd, 0x31, 0x40, 0xc8, 0x3d,
  0x99, 0xfe, 0x99, 0x3e, 0x2d, 0x50, 0x23, 0xbe, 0xe6, 0xa9, 0xb4, 0xbd,
  0x12, 0xbc, 0x55, 0x3e, 0xdd, 0xf6, 0x01, 0x3e, 0x02, 0x6a, 0xa8, 0xbe,
  0x45, 0x27, 0xa8, 0x3e, 0x5f, 0xaf, 0x30, 0xbe, 0x5d, 0xf1, 0x08, 0x3e,
  0xda, 0xe9, 0x59, 0x3e, 0x54, 0x1a, 0x47, 0x3e, 0x54, 0x33, 0xa4, 0x3e,
  0x41, 0x02, 0xc6, 0xbe, 0x12, 0xe1, 0xff, 0xff, 0x10, 0x00, 0x00, 0x00,
  0x08, 0x00, 0x00, 0x00, 0x14, 0x00, 0x00, 0x00, 0x30, 0x00, 0x00, 0x00,
  0x02, 0x00, 0x00, 0x00, 0x04, 0x00, 0x00, 0x00, 0x10, 0x00, 0x00, 0x00,
  0x19, 0x00, 0x00, 0x00, 0x73, 0x65, 0x71, 0x75, 0x65, 0x6e, 0x74, 0x69,
  0x61, 0x6c, 0x2f, 0x64, 0x65, 0x6e, 0x73, 0x65, 0x5f, 0x31, 0x2f, 0x4d,
  0x61, 0x74, 0x4d, 0x75, 0x6c, 0x00, 0x00, 0x00, 0x80, 0xe0, 0xff, 0xff,
  0x8a, 0xe1, 0xff, 0xff, 0x04, 0x00, 0x00, 0x00, 0x00, 0x1c, 0x00, 0x00,
  0x85, 0x79, 0x50, 0xbe, 0x0c, 0x7c, 0xbd, 0xbc, 0x42, 0x64, 0x26, 0xbc,
  0x61, 0x3e, 0x22, 0x3e, 0x48, 0x8a, 0x4f, 0x3c, 0xac, 0x9b, 0x1c, 0xbd,
  0x1c, 0xe1, 0x88, 0xbe, 0x44, 0x50, 0x69, 0xbd, 0x83, 0xcf, 0x97, 0xbe,
  0x21, 0xcd, 0x4a, 0xbe, 0xa4, 0xee, 0x8d, 0xbe, 0x8b, 0x2b, 0x8f, 0xbd,
  0xf2, 0x5c, 0x74, 0xbc, 0x2b, 0x8c, 0xad, 0xbd, 0xe7, 0xae, 0x30, 0x3d,
  0xd8, 0xe3, 0xef, 0xbd, 0x7a, 0x9a, 0x38, 0xbe, 0xaf, 0xc0, 0xcb, 0xbd,
  0x1a, 0x96, 0x2f, 0xbe, 0xc2, 0x86, 0x78, 0xbe, 0xb1, 0x78, 0xfe, 0x3d,
  0xc6, 0x60, 0x67, 0xbc, 0xf7, 0x6b, 0x8d, 0xbe, 0x0c, 0xf9, 0x54, 0xbe,
  0x93, 0x72, 0x64, 0xbe, 0x2a, 0x53, 0x29, 0xbe, 0x02, 0xfc, 0x39, 0x3d,
  0x99, 0x79, 0x91, 0x3f, 0xb7, 0x86, 0xaa, 0xbd, 0xff, 0xa2, 0x39, 0xbe,
  0x13, 0xdf, 0x9b, 0x3d, 0x72, 0x65, 0x02, 0xbe, 0xfc, 0xa6, 0x7d, 0xbe,
  0x34, 0xb9, 0x37, 0xbe, 0x83, 0x97, 0xd4, 0x3d, 0xcf, 0x5f, 0xf9, 0xbd,
  0x7e, 0xcb, 0x1f, 0x3e, 0xa3, 0x84, 0x69, 0xbe, 0x2c, 0x41, 0x97, 0xbe,
  0x82, 0x6f, 0xae, 0xbc, 0x40, 0x31, 0x8e, 0x3d, 0xc8, 0x74, 0x1b, 0xbe,
  0xe5, 0x6b, 0xb9, 0x3d, 0x75, 0x66, 0x18, 0x3f, 0xd4, 0x05, 0x87, 0x3d,
  0xf6, 0xc5, 0x47, 0xbe, 0x39, 0x80, 0xd3, 0x3d, 0xf8, 0x71, 0xb7, 0x3d,
  0x73, 0x0a, 0x23, 0xbe, 0x3c, 0xd7, 0x23, 0x3d, 0x7d, 0x3d, 0x70, 0x3d,
  0xce, 0x77, 0x9e, 0xbb, 0x4e, 0xa5, 0x1b, 0xbd, 0x3b, 0x74, 0x63, 0xbd,
  0x53, 0x5d, 0xec, 0xbd, 0xc8, 0x53, 0x85, 0x3c, 0xd0, 0xe7, 0x64, 0xbb,
  0x3a, 0x06, 0x38, 0xbe, 0x98, 0x8b, 0x1f, 0x3e, 0x0d, 0x4f, 0x8c, 0x3f,
  0x4b, 0x93, 0xae, 0x3d, 0x4c, 0x65, 0xf7, 0xbc, 0x80, 0xda, 0x25, 0x3e,
  0x3a, 0x82, 0xf1, 0xbd, 0x71, 0x71, 0xa5, 0x3c, 0x1c, 0x97, 0x9b, 0xbd,
  0xa4, 0x05, 0x2d, 0xbd, 0x2c, 0x2b, 0xb1, 0x3d, 0xbf, 0xe5, 0x1c, 0xbe,
  0x2e, 0x19, 0x9c, 0x3d, 0x9e, 0x2a, 0xc8, 0xbd, 0xf0, 0xd1, 0x1b, 0xbd,
  0xee, 0x22, 0x80, 0xbd, 0x29, 0xce, 0x91, 0xbd, 0xe0, 0xa4, 0xd4, 0x3a,
  0x5a, 0x97, 0x4a, 0x3f, 0x0f, 0xe4, 0xb5, 0x38, 0x3c, 0xbe, 0x4e, 0xbc,
  0x81, 0x32, 0x2d, 0xbd, 0x90, 0xf3, 0x34, 0xbc, 0xe8, 0x74, 0xf6, 0x3c,
  0xa5, 0x9c, 0x3b, 0xbe, 0x7a, 0xd8, 0x4d, 0xbe, 0x3e, 0xa2, 0xc6, 0x3d,
  0x3a, 0xcc, 0x54, 0x3d, 0x8b, 0xfe, 0xd2, 0xbd, 0x29, 0xf1, 0xb8, 0xbe,
  0x03, 0xf7, 0x12, 0xbd, 0xcd, 0xba, 0x55, 0xbe, 0x45, 0x62, 0x9e, 0xbe,
  0x6f, 0x8a, 0xef, 0xbd, 0x59, 0xbf, 0x2d, 0x3f, 0xde, 0x57, 0x43, 0xbd,
  0x36, 0xb9, 0xdd, 0xbc, 0x67, 0xb3, 0x80, 0xbd, 0xb0, 0x5d, 0xe0, 0xbd,
  0x5f, 0x8e, 0xea, 0xbd, 0x75, 0x83, 0xd8, 0xbd, 0x0f, 0xa0, 0x19, 0xbe,
  0xaa, 0x0f, 0x66, 0x3c, 0x2e, 0x2d, 0x26, 0x3d, 0xd8, 0xd8, 0x59, 0x3d,
  0xbd, 0xc1, 0x4e, 0xbe, 0xbc, 0x7f, 0x5d, 0xbe, 0x1b, 0xd1, 0x61, 0xbd,
  0x08, 0x61, 0x35, 0xbe, 0xd3, 0x31, 0x96, 0xbd, 0xf6, 0x09, 0xa1, 0x3f,
  0x42, 0xcc, 0x45, 0xbd, 0x57, 0x0b, 0x5f, 0x3d, 0x7e, 0x21, 0xd8, 0x3d,
  0xdf, 0x86, 0xc9, 0x3c, 0x69, 0x45, 0xe7, 0xbd, 0xbc, 0x80, 0x14, 0xbe,
  0xe9, 0xcb, 0xcf, 0xbd, 0x61, 0xbc, 0xef, 0xbc, 0x6d, 0xe7, 0xf1, 0xb9,
  0xcb, 0xc0, 0xd5, 0x3b, 0x6f, 0x69, 0x98, 0xbe, 0xe4, 0x8f, 0x39, 0xbe,
  0x92, 0xcf, 0x89, 0xbc, 0x02, 0x72, 0xc8, 0xbb, 0xcd, 0xe2, 0x45, 0xbd,
  0xc1, 0xa3, 0x83, 0xbe, 0x34, 0x04, 0x17, 0x3d, 0xb8, 0xd3, 0x20, 0xbe,
  0x84, 0xa3, 0xb9, 0x3c, 0x1a, 0xc3, 0x12, 0xbd, 0x36, 0xb9, 0xf5, 0x3c,
  0x25, 0x25, 0x80, 0xbe, 0x1a, 0xda, 0x65, 0xbe, 0x43, 0x46, 0x28, 0xbe,
  0x0e, 0xd1, 0x98, 0x3d, 0x9a, 0x2a, 0x2f, 0xbe, 0xf6, 0x5a, 0x8d, 0xbd,
  0x83, 0xaf, 0x76, 0xbe, 0x3c, 0xa5, 0xa5, 0xbd, 0x5b, 0x61, 0x63, 0xbe,
  0x35, 0x60, 0x1d, 0xbe, 0x7b, 0xe4, 0x8b, 0xbd, 0xca, 0xe4, 0xfb, 0xbd,
  0x97, 0x2f, 0x65, 0xbe, 0xc1, 0x7a, 0x1c, 0x3b, 0xc2, 0x20, 0xca, 0xbd,
  0xe2, 0x91, 0xc2, 0x3d, 0xb1, 0xa9, 0x05, 0x3d, 0xfb, 0xf4, 0x8c, 0xbe,
  0x28, 0x72, 0x23, 0x3e, 0xb3, 0xe6, 0x0e, 0xbe, 0xcb, 0x0f, 0x0a, 0x3c,
  0xdd, 0xf9, 0x25, 0xbe, 0x40, 0x3c, 0xfa, 0xbd, 0xf9, 0x1f, 0x21, 0xbe,
  0xe2, 0x44, 0xb3, 0xbe, 0xcc, 0x6d, 0xd7, 0x3d, 0x0d, 0xb2, 0x13, 0xbe,
  0xa4, 0x00, 0x73, 0xbe, 0x59, 0x85, 0xa6, 0x3b, 0xc9, 0x22, 0x24, 0x3e,
  0xb9, 0x18, 0x4c, 0xbc, 0xc4, 0x9f, 0xb3, 0x3d, 0xfc, 0x03, 0x43, 0x3c,
  0x46, 0xa3, 0xc5, 0x3d, 0xd5, 0xd7, 0xab, 0x3d, 0xa3, 0xed, 0xe5, 0xbd,
  0x73, 0x01, 0x18, 0x3d, 0x3e, 0xfd, 0x8d, 0xbd, 0x71, 0x36, 0x7f, 0xbd,
  0x3c, 0xf2, 0x68, 0xbe, 0xfe, 0x25, 0xe4, 0xbd, 0x07, 0x96, 0x89, 0x3d,
  0x3a, 0xd7, 0xdd, 0xbd, 0xc7, 0xbe, 0xe3, 0x3d, 0xbc, 0x42, 0x82, 0xbe,
  0xd8, 0xaf, 0x57, 0x3d, 0xf7, 0x11, 0xc8, 0x3c, 0xcd, 0x4a, 0x3c, 0xbe,
  0x32, 0x40, 0xc7, 0xbd, 0xa5, 0x26, 0x2c, 0xbe, 0xf4, 0x66, 0x68, 0x3e,
  0x4a, 0xbf, 0xa1, 0xbd, 0xbf, 0xc3, 0x60, 0x3c, 0xe3, 0x61, 0x58, 0xbe,
  0x9a, 0x53, 0x42, 0xbe, 0x9b, 0x7b, 0xbc, 0x3d, 0x81, 0x0d, 0x8e, 0xbe,
  0xe0, 0x06, 0x2e, 0xbe, 0xe1, 0xbe, 0xc1, 0xbd, 0xc0, 0xc3, 0x1e, 0x3e,
  0x3d, 0xca, 0x10, 0xbe, 0x8b, 0xe1, 0x0c, 0x3e, 0xba, 0xa6, 0x69, 0xbd,
  0xdc, 0xa4, 0x87, 0xbe, 0xec, 0x22, 0x50, 0xbd, 0x0c, 0x10, 0xc2, 0x3d,
  0x10, 0x63, 0x0a, 0x3e, 0xb8, 0x72, 0x65, 0xbe, 0x25, 0x4b, 0x70, 0xbe,
  0x3d, 0x99, 0xc1, 0xbb, 0x1d, 0x62, 0x90, 0xbd, 0x29, 0x81, 0xa2, 0xbc,
  0xdf, 0x2b, 0x1e, 0xbe, 0x04, 0x64, 0xba, 0xbd, 0x1c, 0x88, 0x31, 0xbe,
  0x87, 0xe1, 0x62, 0xbe, 0x54, 0x9e, 0x6b, 0xbe, 0xaf, 0x32, 0xd4, 0x3c,
  0x91, 0x89, 0xf3, 0xbc, 0xfd, 0xc6, 0x8a, 0xbe, 0x8b, 0x64, 0x16, 0xbe,
  0xc8, 0xfb, 0x2c, 0xbe, 0xe3, 0x53, 0x1e, 0x3e, 0x5e, 0x04, 0xa0, 0xbc,
  0x3c, 0xaf, 0x02, 0xbe, 0xe6, 0x71, 0x07, 0xbe, 0xbd, 0xe1, 0x71, 0xbe,
  0x78, 0x91, 0xd7, 0x3c, 0xcb, 0xb0, 0x9d, 0xbe, 0x10, 0x96, 0x7e, 0xbc,
  0xf7, 0x5c, 0x80, 0xbd, 0x2b, 0xd3, 0x10, 0x3d, 0x86, 0x1c, 0x18, 0x3d,
  0x83, 0xfb, 0x5a, 0x3d, 0x99, 0x58, 0xa7, 0x3c, 0x5a, 0x7c, 0x48, 0xbe,
  0x5a, 0x5a, 0x6c, 0xbe, 0x30, 0x72, 0xa7, 0xbd, 0x7f, 0xae, 0x6f, 0xbe,
  0x85, 0xa9, 0x80, 0xbe, 0x07, 0x3a, 0x8d, 0xbe, 0x87, 0x66, 0xf9, 0xbd,
  0x1e, 0x8a, 0x80, 0xbd, 0x15, 0x04, 0xc2, 0xbd, 0xa5, 0x0a, 0x78, 0xbe,
  0xd7, 0x65, 0x52, 0xbe, 0x90, 0x19, 0xb7, 0xbe, 0xd1, 0x58, 0x19, 0xbe,
  0x77, 0xbc, 0xe5, 0xbd, 0x3e, 0x70, 0x2d, 0x3e, 0xf3, 0xdf, 0x5e, 0xbe,
  0xee, 0x15, 0xd7, 0xbd, 0x1d, 0x65, 0x54, 0x3d, 0x3e, 0x7c, 0x30, 0x3c,
  0x88, 0x7a, 0x3b, 0xbe, 0x34, 0xf5, 0x65, 0xbe, 0x88, 0x3b, 0xa9, 0x3d,
  0xde, 0x98, 0x49, 0xbe, 0xad, 0x1a, 0x69, 0xbd, 0x14, 0x1a, 0xa9, 0xbd,
  0x44, 0x8f, 0x88, 0xbe, 0x77, 0xad, 0x0b, 0xbe, 0x57, 0x28, 0x5c, 0xbd,
  0xd8, 0xf6, 0x0a, 0x3e, 0x96, 0x0f, 0xc5, 0xbd, 0xc4, 0x6a, 0xb1, 0xbd,
  0x26, 0x4a, 0xa5, 0x3a, 0xb6, 0x67, 0x91, 0xbe, 0x51, 0xf9, 0x34, 0xbe,
  0xb9, 0x5c, 0x55, 0xbc, 0x37, 0x67, 0x72, 0x3c, 0xae, 0x58, 0xbe, 0x3d,
  0x5d, 0x8d, 0xab, 0xbd, 0xa2, 0x55, 0x74, 0xbd, 0x82, 0xcf, 0x5e, 0x3d,
  0x78, 0xbb, 0x02, 0x3d, 0x7e, 0x6f, 0x88, 0xbe, 0x41, 0x0e, 0x95, 0x3d,
  0x49, 0x86, 0x19, 0xbe, 0x32, 0xef, 0x36, 0x3e, 0x28, 0xf0, 0xad, 0xbe,
  0x0b, 0x39, 0x2e, 0xbd, 0x9b, 0x36, 0x1f, 0xbb, 0x20, 0x8d, 0x82, 0xbe,
  0x35, 0x27, 0xff, 0x3d, 0x76, 0xa0, 0xe0, 0x3c, 0xaa, 0xea, 0x08, 0x3e,
  0xa8, 0xda, 0x7c, 0x3d, 0x7d, 0xbb, 0xa3, 0xbe, 0x88, 0x44, 0x45, 0xbe,
  0x8b, 0xc1, 0x20, 0xbe, 0x3e, 0xae, 0xec, 0x3d, 0x16, 0x43, 0x7f, 0xbe,
  0xff, 0xc5, 0x3b, 0xbe, 0x20, 0x72, 0x1d, 0x3e, 0xf8, 0x7e, 0x23, 0xbb,
  0xc6, 0xb2, 0x60, 0xbe, 0x47, 0xd8, 0xfe, 0x3d, 0x10, 0x34, 0x65, 0xbe,
  0x53, 0xa8, 0x84, 0xbe, 0x62, 0x33, 0x85, 0x3d, 0xbd, 0xf2, 0xf5, 0x3c,
  0x92, 0xf9, 0x09, 0xbe, 0x64, 0x4b, 0x88, 0xbd, 0x5a, 0x2f, 0x5f, 0xbe,
  0x90, 0xdc, 0x54, 0xbe, 0x60, 0xfc, 0x5f, 0x3d, 0x18, 0x4c, 0x65, 0xbe,
  0x60, 0x19, 0x55, 0xbe, 0x28, 0xc0, 0xaa, 0xbd, 0xbd, 0x0a, 0xb3, 0xbc,
  0x26, 0x98, 0x2f, 0xbe, 0xd0, 0xa7, 0xe5, 0xbd, 0x61, 0x9e, 0xa3, 0x3d,
  0x68, 0xc6, 0xc5, 0x39, 0x5c, 0x5d, 0xc9, 0x3d, 0xd0, 0x83, 0x22, 0x3d,
  0x89, 0x2b, 0x5c, 0xbd, 0x6f, 0x60, 0xb0, 0xbc, 0x3d, 0xac, 0x14, 0xbe,
  0xcd, 0x79, 0x75, 0xbe, 0x69, 0x97, 0x49, 0xbe, 0xe0, 0x8b, 0x6b, 0xbe,
  0xf1, 0xc4, 0x34, 0xbe, 0x56, 0x0e, 0xdf, 0xbd, 0xd5, 0xa0, 0x0d, 0xbe,
  0xd6, 0xb4, 0x50, 0xbd, 0x01, 0x4e, 0x25, 0x3e, 0x3a, 0xb0, 0xb5, 0xbd,
  0x60, 0x1f, 0xc4, 0x3d, 0x1f, 0x78, 0x10, 0xbe, 0x5a, 0x31, 0x26, 0xbd,
  0xc5, 0x52, 0x41, 0x3d, 0x74, 0xb5, 0xb5, 0xbd, 0xe8, 0x60, 0x02, 0x3e,
  0xdf, 0x4c, 0x31, 0x3d, 0x33, 0xff, 0xad, 0xbe, 0xdb, 0x0f, 0x97, 0xbe,
  0x3d, 0x92, 0x83, 0xbd, 0xaa, 0xb5, 0xad, 0xbd, 0xbd, 0x07, 0xdd, 0xbd,
  0x95, 0x4c, 0x0a, 0xbe, 0x1b, 0x2f, 0xb8, 0x3b, 0xba, 0x81, 0xf7, 0x3d,
  0xb4, 0x54, 0x39, 0x3c, 0xd9, 0x73, 0x85, 0xbd, 0x65, 0xd7, 0x46, 0xbe,
  0xbb, 0xd2, 0x9a, 0x3d, 0xeb, 0x23, 0x31, 0x3c, 0x77, 0x9a, 0x3a, 0x3d,
  0x92, 0x71, 0xec, 0xbd, 0x4b, 0x1e, 0xb3, 0x3e, 0x14, 0xf2, 0x67, 0xbc,
  0x70, 0x87, 0xed, 0xbd, 0xfa, 0x01, 0x73, 0x3e, 0x01, 0x33, 0x96, 0xbd,
  0x30, 0x20, 0xd0, 0x3d, 0x5a, 0x86, 0x57, 0xbd, 0xb4, 0xc2, 0x61, 0xbe,
  0x59, 0x95, 0x65, 0x3e, 0x3b, 0xc7, 0x06, 0xbe, 0xd5, 0xab, 0xa7, 0x3e,
  0x95, 0x35, 0x94, 0xbd, 0xae, 0xf7, 0x85, 0xbe, 0xa7, 0xce, 0x30, 0xbe,
  0xf6, 0xf7, 0x09, 0xbd, 0xd1, 0xa9, 0x41, 0x3c, 0xef, 0x2b, 0xeb, 0x3d,
  0xfb, 0x6d, 0x84, 0x3d, 0x0c, 0x85, 0xd9, 0xbd, 0x6e, 0x0f, 0x59, 0xbe,
  0x6a, 0xde, 0x9d, 0xbe, 0xd6, 0xae, 0xf9, 0x3d, 0x46, 0xca, 0x7c, 0x3d,
  0x1d, 0xa4, 0x71, 0xbe, 0xee, 0x39, 0x3d, 0x3e, 0x8e, 0x78, 0x96, 0xbe,
  0x98, 0xb1, 0x0d, 0x3e, 0x52, 0x79, 0xa8, 0xbc, 0xc3, 0x09, 0x17, 0xbe,
  0x79, 0xbd, 0xad, 0xbd, 0xc9, 0x7d, 0x93, 0xbe, 0xb2, 0xf7, 0xc7, 0xbc,
  0x3a, 0xf7, 0xaa, 0x3d, 0xb0, 0x77, 0xd1, 0x3b, 0xea, 0xc9, 0x42, 0xbe,
  0x2f, 0x47, 0xb2, 0xbe, 0x5f, 0x0d, 0xbe, 0xbd, 0x8d, 0x1d, 0x9e, 0xbd,
  0x40, 0x8a, 0xcc, 0x3d, 0x95, 0x64, 0xc0, 0xbd, 0x28, 0x1b, 0x4c, 0xbe,
  0x40, 0x70, 0x07, 0xbe, 0x96, 0xf2, 0xc7, 0xbd, 0xd2, 0x55, 0x49, 0xbe,
  0xb8, 0xd3, 0x3f, 0x3d, 0x0a, 0xa3, 0xc0, 0xbd, 0xee, 0x15, 0x01, 0xbf,
  0x0c, 0xc8, 0x4b, 0x3d, 0xd0, 0xc7, 0x5c, 0xbe, 0x6c, 0x3a, 0x07, 0xbd,
  0xe1, 0x3c, 0x61, 0x3c, 0x3a, 0xd2, 0x89, 0xbe, 0x2e, 0xbf, 0x4c, 0x3d,
  0x02, 0x40, 0x8e, 0xbd, 0xd6, 0x81, 0x91, 0x3c, 0xa7, 0xe9, 0xf8, 0xbd,
  0xd0, 0x86, 0x3d, 0x3e, 0xac, 0x21, 0xc6, 0xbe, 0x61, 0x25, 0x1b, 0x3e,
  0x34, 0xb3, 0xb5, 0xbe, 0x84, 0xf1, 0xa3, 0x3c, 0x1d, 0xb9, 0xe3, 0x3c,
  0xce, 0x74, 0x9a, 0xbe, 0x37, 0x28, 0xee, 0xba, 0xe6, 0xc1, 0x94, 0xbc,
  0x52, 0x2e, 0x91, 0x3c, 0xc8, 0xd6, 0x2c, 0xbd, 0xee, 0x8e, 0x7c, 0xbe,
  0x13, 0xbf, 0x72, 0xbe, 0x0a, 0x2f, 0xff, 0xbd, 0xf4, 0x9a, 0xcb, 0x3d,
  0xee, 0x07, 0x54, 0x3c, 0xae, 0xd2, 0x59, 0xbd, 0xa2, 0xba, 0xc2, 0xbe,
  0xc7, 0x82, 0x08, 0x3a, 0xca, 0xc6, 0x79, 0xbe, 0x8c, 0x75, 0x50, 0xbe,
  0xc7, 0xf8, 0x0f, 0xbd, 0xb8, 0x32, 0x2c, 0x3c, 0xe5, 0x45, 0x49, 0xbe,
  0x0a, 0x71, 0xbd, 0x3d, 0xa9, 0x6c, 0x84, 0x3d, 0x63, 0x81, 0xfd, 0xbd,
  0x5a, 0x6e, 0x0c, 0xbe, 0x94, 0xac, 0x07, 0xbd, 0x28, 0x02, 0x8e, 0xbd,
  0xfc, 0xfd, 0x96, 0xbc, 0x32, 0xeb, 0x4a, 0xbe, 0xa6, 0x94, 0xe7, 0xbd,
  0xa6, 0x9a, 0xe5, 0xbe, 0x1c, 0x3a, 0xf8, 0xbd, 0x5c, 0xd7, 0xb0, 0xbd,
  0xb0, 0xba, 0x6c, 0x3d, 0x45, 0x82, 0x89, 0xbd, 0x1c, 0xdc, 0xb6, 0xbd,
  0x15, 0x62, 0xde, 0xbd, 0x31, 0xe6, 0xde, 0xbb, 0xe6, 0x0f, 0x4e, 0x3e,
  0xa0, 0x9e, 0x72, 0x3c, 0x59, 0x62, 0x78, 0xbd, 0xed, 0x62, 0x6b, 0x3e,
  0x61, 0x15, 0xe4, 0xbc, 0xa7, 0x17, 0x17, 0xbe, 0xb6, 0x62, 0x84, 0xbd,
  0x76, 0xbb, 0x4a, 0x3e, 0xdf, 0x8c, 0x57, 0xbe, 0xa5, 0x7e, 0x5d, 0x3e,
  0x8e, 0x71, 0x77, 0xbd, 0x2c, 0x49, 0x95, 0xbe, 0x77, 0x28, 0x04, 0xbf,
  0x8c, 0x43, 0xc5, 0x3d, 0xa2, 0x1e, 0x08, 0xbb, 0x74, 0xf6, 0x3d, 0xbe,
  0xd7, 0x75, 0x98, 0xbe, 0xe6, 0xa1, 0x0c, 0xbf, 0x75, 0x1f, 0x17, 0xbe,
  0x03, 0x99, 0x80, 0xbe, 0xd1, 0x8a, 0xbb, 0x3c, 0xa8, 0xde, 0x5f, 0x3e,
  0x2d, 0x66, 0x92, 0x3c, 0x0a, 0xb3, 0xa0, 0xbe, 0xcb, 0x22, 0x64, 0x3d,
  0x97, 0x46, 0x04, 0xbe, 0x23, 0x92, 0x4f, 0x3e, 0xf4, 0xad, 0x76, 0x3d,
  0x01, 0x81, 0x06, 0xbe, 0xbd, 0x64, 0x33, 0x3b, 0x4c, 0x8a, 0xd6, 0x3d,
  0x42, 0x7c, 0x2c, 0x3d, 0x60, 0x04, 0x6e, 0xbe, 0x44, 0x66, 0x0d, 0xbf,
  0xe3, 0x66, 0x67, 0x3d, 0xb2, 0x69, 0x00, 0xbd, 0x9a, 0x8b, 0x61, 0x3c,
  0xb3, 0x63, 0x3e, 0x3e, 0x1f, 0xb1, 0xea, 0xbe, 0xa3, 0x63, 0x89, 0x3c,
  0xbb, 0x90, 0x0e, 0x3d, 0x9a, 0x04, 0x95, 0xbd, 0x5c, 0x5d, 0x0b, 0x3e,
  0x31, 0x61, 0xf9, 0x3d, 0xe9, 0x99, 0x93, 0xbd, 0xb5, 0xb5, 0x43, 0x3e,
  0xea, 0x33, 0xdb, 0x3d, 0xb4, 0x37, 0x54, 0x3e, 0x6e, 0xd5, 0xaf, 0x3d,
  0xeb, 0x4c, 0xa6, 0xbe, 0xb6, 0x93, 0xd5, 0x3d, 0x3a, 0xfb, 0x16, 0x3e,
  0x9c, 0x40, 0x40, 0x3c, 0x22, 0x4d, 0xa3, 0x3d, 0x8b, 0x74, 0x9a, 0xbe,
  0x99, 0x82, 0x62, 0x3e, 0x3b, 0xfb, 0x39, 0x3c, 0xca, 0x01, 0x47, 0xbe,
  0xbb, 0xa2, 0xb7, 0x3e, 0x41, 0x5c, 0x37, 0x3e, 0xc3, 0x40, 0xf5, 0xbd,
  0xa2, 0x9d, 0x6e, 0x3e, 0x20, 0xea, 0xde, 0xbd, 0x5e, 0x56, 0xd5, 0xbd,
  0x4c, 0xe9, 0xc6, 0xbd, 0xcd, 0x87, 0xe0, 0xbe, 0x6d, 0x79, 0x14, 0xbe,
  0xde, 0x2a, 0x88, 0xbc, 0x33, 0x50, 0x43, 0x3c, 0xd7, 0xd5, 0x8a, 0x3d,
  0x06, 0x0a, 0x8f, 0xbe, 0x5b, 0x64, 0x2b, 0x3e, 0x76, 0xc8, 0x0b, 0x3c,
  0x3b, 0xd2, 0x6c, 0x3d, 0x6c, 0x30, 0x90, 0x3e, 0x87, 0x4a, 0xf3, 0xbd,
  0x1d, 0x83, 0x86, 0xbe, 0x2f, 0x28, 0xdf, 0x3d, 0x2c, 0x16, 0xce, 0xbd,
  0x62, 0xe1, 0xc3, 0x3d, 0xe3, 0x5b, 0xbb, 0x3b, 0xfd, 0xc6, 0xb3, 0xbe,
  0x16, 0xca, 0x17, 0xbe, 0xfa, 0xa0, 0xa9, 0xbe, 0xf6, 0xc2, 0xcf, 0xbb,
  0xa5, 0x81, 0xef, 0x3d, 0x24, 0xb3, 0xbd, 0xbe, 0x6e, 0x7d, 0x5d, 0xbd,
  0x76, 0x6c, 0xdf, 0xbc, 0xab, 0x69, 0xcf, 0xbe, 0x8a, 0xf5, 0xb9, 0x3e,
  0x8c, 0x6d, 0x93, 0xbe, 0x1e, 0xb7, 0x85, 0xbe, 0xc7, 0x35, 0x8c, 0x3d,
  0xa3, 0xff, 0x6c, 0xbe, 0xcc, 0xbf, 0xaa, 0xbe, 0xca, 0xb8, 0xad, 0x3c,
  0xf9, 0xab, 0x22, 0xbe, 0xff, 0xb7, 0x9e, 0xbe, 0x74, 0x92, 0x7e, 0xbd,
  0x18, 0xd8, 0x90, 0x3a, 0xbd, 0x41, 0x24, 0x3e, 0x52, 0x0d, 0xda, 0xbe,
  0x3a, 0x34, 0x13, 0xbe, 0xf0, 0xef, 0x5d, 0xbc, 0xd4, 0x69, 0x96, 0xbe,
  0x19, 0xd3, 0xaf, 0x3e, 0x2a, 0xf8, 0x41, 0xbd, 0xf3, 0xc7, 0x8f, 0xbd,
  0xc8, 0xf5, 0xfe, 0x3c, 0x9e, 0x59, 0x58, 0x3e, 0x50, 0x2a, 0x84, 0xbd,
  0x45, 0x70, 0x9a, 0x3c, 0x16, 0xff, 0x1a, 0x3e, 0xf4, 0x26, 0xfa, 0xbc,
  0x41, 0xb7, 0x72, 0x3d, 0x64, 0xcc, 0x2e, 0x3a, 0x64, 0xff, 0x81, 0x3c,
  0x83, 0x1f, 0xb0, 0xbe, 0x54, 0xf2, 0xcd, 0xbd, 0x10, 0x1e, 0x05, 0x3c,
  0xe0, 0x45, 0xc5, 0xbd, 0xa9, 0xb7, 0x40, 0x3d, 0x15, 0x0a, 0x86, 0xbe,
  0x09, 0xd1, 0xb7, 0xbe, 0xd4, 0x40, 0xb3, 0xbe, 0xad, 0x11, 0x97, 0x3c,
  0x2d, 0xd4, 0x1a, 0xbe, 0x58, 0x16, 0x95, 0xbe, 0x69, 0x37, 0xb6, 0xbe,
  0x29, 0xec, 0x44, 0xbe, 0x85, 0xc8, 0x89, 0xbe, 0x77, 0x7c, 0xca, 0xbd,
  0x1a, 0x9e, 0x1d, 0xbd, 0x32, 0x1f, 0x7d, 0xbe, 0x2f, 0xcf, 0x85, 0xbb,
  0x59, 0x15, 0x3f, 0xbf, 0xe8, 0xe1, 0x02, 0xbe, 0x6d, 0x60, 0x9d, 0x3c,
  0xd7, 0x91, 0x0f, 0xbe, 0xcc, 0x5f, 0xc7, 0xbe, 0xac, 0xb0, 0x86, 0xbd,
  0xb5, 0xdd, 0x2d, 0x3d, 0x25, 0x0c, 0xd9, 0xbb, 0xe2, 0x02, 0x62, 0xbd,
  0x72, 0xf4, 0x12, 0xbe, 0x6e, 0x8b, 0xcf, 0xbd, 0x3c, 0xad, 0xc1, 0xbc,
  0xf7, 0xc0, 0x00, 0xbd, 0xcd, 0x01, 0x34, 0xbe, 0x25, 0xc4, 0xb6, 0xbd,
  0xbf, 0x46, 0x74, 0x3d, 0xcf, 0x34, 0xf5, 0xbe, 0x2b, 0x67, 0x3f, 0xbd,
  0x5a, 0x2b, 0xa6, 0xbd, 0xcd, 0xe9, 0xbe, 0xbd, 0xdd, 0xb3, 0xdf, 0xbd,
  0x0f, 0x4e, 0xab, 0xbe, 0x37, 0xd1, 0x44, 0xbd, 0x99, 0x51, 0x57, 0x3d,
  0xf9, 0x5a, 0xb7, 0xbd, 0x6f, 0x33, 0x97, 0xbe, 0x68, 0xc0, 0x33, 0xbe,
  0xd4, 0x42, 0x2e, 0xbe, 0x96, 0x8e, 0x40, 0x3c, 0x15, 0xa9, 0xaf, 0x3d,
  0x67, 0xcc, 0xa1, 0x3d, 0x50, 0x5d, 0xcd, 0x3d, 0x69, 0xd9, 0xb7, 0xbe,
  0x74, 0xbf, 0x88, 0xbe, 0xad, 0x70, 0xb6, 0xbd, 0xbc, 0x39, 0x91, 0xbd,
  0x99, 0xce, 0x9c, 0xbe, 0x41, 0xea, 0x07, 0xbf, 0xdb, 0x85, 0x2d, 0x3e,
  0x78, 0x48, 0x10, 0xbe, 0xb2, 0xf4, 0x0d, 0xbe, 0x5c, 0x1a, 0x82, 0xbe,
  0x88, 0x21, 0x58, 0xbe, 0x32, 0x8b, 0x4e, 0x3d, 0x1e, 0x1d, 0x0b, 0xbd,
  0x36, 0x3f, 0x40, 0xbe, 0xcd, 0xae, 0xda, 0x3d, 0x6c, 0x5a, 0x20, 0xbe,
  0x8c, 0x2c, 0xa8, 0xbe, 0x7b, 0x7f, 0x5d, 0xbd, 0x95, 0xd3, 0x10, 0xbe,
  0x26, 0x36, 0xa5, 0x3d, 0x29, 0xb4, 0x1a, 0x3e, 0xa9, 0x7d, 0xaf, 0xbd,
  0xdb, 0x9b, 0x3e, 0x3e, 0x32, 0xf0, 0x46, 0xbe, 0x86, 0x8a, 0x69, 0xbe,
  0x56, 0xed, 0x9c, 0xbe, 0x48, 0xc0, 0x17, 0xbd, 0xc6, 0xbe, 0xb9, 0x3d,
  0xb2, 0x46, 0x82, 0xbd, 0xfc, 0x9f, 0x95, 0xbe, 0xb0, 0x14, 0xd3, 0xbd,
  0x02, 0xb6, 0xc3, 0x3e, 0xa5, 0x50, 0xb8, 0xbe, 0xa8, 0x86, 0xc3, 0x3d,
  0xe9, 0xf1, 0xbe, 0xbd, 0xc0, 0x45, 0x19, 0x3e, 0xb9, 0xe4, 0xa0, 0xbc,
  0x3c, 0x21, 0x61, 0x3d, 0xe6, 0xf2, 0xa3, 0xbd, 0x76, 0x35, 0x91, 0x3e,
  0x5c, 0x46, 0xf0, 0xbd, 0x82, 0xfa, 0x34, 0xbd, 0xba, 0xae, 0x97, 0x3d,
  0xe8, 0x30, 0xe5, 0x3c, 0x66, 0x5d, 0x51, 0xbd, 0x5a, 0x0c, 0x9b, 0xbd,
  0x20, 0xec, 0x04, 0x3e, 0x98, 0x1f, 0x89, 0x3e, 0x6a, 0x4c, 0xdf, 0xbd,
  0xad, 0x72, 0x4f, 0x3e, 0x62, 0x59, 0x33, 0xbe, 0x67, 0xa3, 0x35, 0x3e,
  0x1a, 0x14, 0xc2, 0x3a, 0xc3, 0x8c, 0xbf, 0x3d, 0x19, 0xea, 0x85, 0xbe,
  0x2c, 0xff, 0x45, 0x3e, 0x50, 0x80, 0x2c, 0xbe, 0x60, 0xf1, 0x00, 0xbd,
  0x21, 0xdb, 0x26, 0xbd, 0x58, 0x0d, 0xa1, 0x3e, 0x11, 0x48, 0xee, 0x3c,
  0x3a, 0xbc, 0x98, 0xbd, 0xc7, 0x71, 0x0b, 0xbd, 0xb0, 0x03, 0x10, 0x3d,
  0xe4, 0x27, 0xf7, 0xbd, 0x70, 0x90, 0xc9, 0x3e, 0x06, 0x41, 0x9d, 0xbc,
  0x22, 0x9e, 0x33, 0xbe, 0x9d, 0x30, 0x6a, 0xbe, 0x06, 0x41, 0x8c, 0xbd,
  0x74, 0xfa, 0xea, 0xbd, 0x53, 0x68, 0x9d, 0x3d, 0x4b, 0xa6, 0x8f, 0xbe,
  0x4d, 0xa6, 0x35, 0x3c, 0xd8, 0x23, 0x63, 0xbe, 0x2c, 0xf0, 0x34, 0xbd,
  0x67, 0x66, 0x6f, 0xbe, 0x3d, 0x23, 0xe5, 0xbc, 0x5c, 0xd3, 0xc0, 0xbe,
  0xef, 0xf2, 0xdc, 0xbc, 0xd0, 0xc5, 0xbc, 0x3c, 0xdd, 0x0a, 0xc1, 0x3c,
  0xda, 0x7b, 0x13, 0xbe, 0xfa, 0x6e, 0xfd, 0x3c, 0x9a, 0x9c, 0x12, 0x3d,
  0x2f, 0xae, 0x15, 0xbe, 0xe2, 0x22, 0x1c, 0x3e, 0x0d, 0x90, 0x93, 0x3d,
  0xab, 0x92, 0x82, 0x3d, 0xbb, 0x4b, 0xe5, 0xbd, 0x15, 0x57, 0x81, 0xbe,
  0xe1, 0x7f, 0x0d, 0x3e, 0xc7, 0xbf, 0x8d, 0xbe, 0x16, 0xc2, 0x25, 0xbe,
  0xe3, 0x4c, 0x7f, 0x3d, 0x01, 0x97, 0x22, 0xbe, 0x86, 0x74, 0x37, 0x3d,
  0x39, 0xbb, 0x0e, 0x3c, 0x6c, 0x9d, 0x75, 0xbc, 0x8d, 0xe8, 0xbc, 0xbd,
  0xf4, 0x7f, 0x52, 0xbe, 0x65, 0x58, 0xa7, 0x3d, 0x5c, 0xff, 0x13, 0xbe,
  0x34, 0x85, 0x15, 0xbe, 0x68, 0xa1, 0xca, 0xbd, 0xa2, 0x54, 0x9b, 0x3d,
  0xdc, 0x0d, 0x4b, 0x3d, 0xe3, 0x8f, 0xb1, 0x3c, 0x29, 0x7b, 0x64, 0xbe,
  0x09, 0xc7, 0x86, 0x3d, 0xb3, 0x83, 0xd7, 0x3c, 0x10, 0xaf, 0x33, 0xbe,
  0xd6, 0x88, 0x9a, 0xbd, 0xf2, 0xc3, 0x4c, 0x3e, 0x2b, 0xc7, 0xe2, 0xbb,
  0x0c, 0xba, 0x94, 0x3b, 0xaf, 0x05, 0x2c, 0x3d, 0x54, 0x73, 0x66, 0xbd,
  0xf1, 0x87, 0x4c, 0x3e, 0x1c, 0xae, 0x10, 0xbe, 0x42, 0x81, 0xaf, 0xbd,
  0x17, 0x6a, 0x28, 0xbe, 0x5c, 0xbc, 0xac, 0xbd, 0x6c, 0x09, 0x14, 0xbc,
  0x9c, 0xab, 0x3b, 0xbe, 0x13, 0xd5, 0xcd, 0xbd, 0x7b, 0x6a, 0x22, 0xbe,
  0x4f, 0xe8, 0x35, 0xbe, 0xb3, 0x1a, 0x3b, 0xbe, 0x48, 0xee, 0x06, 0x3e,
  0x8e, 0xe8, 0x5e, 0x3d, 0xb4, 0xd2, 0x3e, 0x3d, 0x98, 0x3d, 0x29, 0xbe,
  0x5b, 0xb0, 0x71, 0xbe, 0x7b, 0xfd, 0xe0, 0xbd, 0x6e, 0x80, 0xae, 0x3d,
  0x46, 0x68, 0x09, 0xbe, 0xf8, 0x94, 0xb8, 0xbe, 0x7c, 0x11, 0x10, 0xbe,
  0xd2, 0xf0, 0x13, 0x3c, 0x18, 0xc7, 0xa3, 0xbe, 0xef, 0x0e, 0x58, 0xbe,
  0x8a, 0xc8, 0x07, 0x3e, 0x5d, 0xf4, 0x36, 0xbd, 0x0b, 0x52, 0x64, 0xbe,
  0xab, 0x84, 0x13, 0x3e, 0xa1, 0x92, 0xff, 0xbd, 0x87, 0x1a, 0x38, 0x3d,
  0x4f, 0xdb, 0xe3, 0xbc, 0xeb, 0xfc, 0x5f, 0xbe, 0x17, 0x4b, 0x47, 0xbe,
  0x0b, 0x23, 0xb8, 0x3d, 0x14, 0x36, 0x01, 0xbb, 0x75, 0xd6, 0x8b, 0xbe,
  0x18, 0xe7, 0x4b, 0xbd, 0x56, 0x80, 0x9a, 0xbc, 0x41, 0xfc, 0x59, 0xbe,
  0xd1, 0x09, 0x9d, 0xbd, 0x87, 0x0d, 0xe6, 0xbd, 0x55, 0x45, 0x2f, 0xbe,
  0x12, 0x5c, 0x5d, 0xbe, 0x8d, 0x8a, 0xab, 0x3d, 0xdf, 0xca, 0x1b, 0xbd,
  0x7b, 0x98, 0x0a, 0x3d, 0x2b, 0x90, 0xf5, 0x3b, 0x01, 0xd2, 0x8b, 0xbe,
  0x91, 0xd0, 0xa5, 0x3c, 0x9e, 0xf5, 0x83, 0xbd, 0x1e, 0xca, 0xec, 0x3d,
  0x66, 0x49, 0xec, 0xbd, 0xdc, 0xd5, 0x85, 0xbe, 0x5f, 0x9a, 0x23, 0xbd,
  0xdc, 0xe3, 0x9d, 0xbe, 0x37, 0x9e, 0x21, 0xbe, 0xba, 0xb3, 0x47, 0x3c,
  0x74, 0x57, 0xfe, 0x3d, 0x4d, 0x78, 0x33, 0xbe, 0xdd, 0xd8, 0xa3, 0x3c,
  0xd0, 0x68, 0x11, 0xbe, 0x30, 0x45, 0x09, 0x3d, 0x0d, 0x76, 0x18, 0xbe,
  0x8e, 0x29, 0xf4, 0xbb, 0xf8, 0x6e, 0xfc, 0xbd, 0xfd, 0x90, 0x91, 0xbe,
  0x3c, 0x99, 0x85, 0xbc, 0xd0, 0xee, 0x82, 0xbe, 0x1d, 0x8a, 0x87, 0xbe,
  0x67, 0x27, 0x2b, 0x3d, 0x2a, 0x68, 0x84, 0xbe, 0x34, 0xfb, 0x60, 0xbb,
  0x42, 0x92, 0x80, 0x3d, 0x5d, 0x6b, 0x43, 0xbd, 0x2b, 0xb4, 0x75, 0xbe,
  0x07, 0xfa, 0x3c, 0xbe, 0xdc, 0x1f, 0x53, 0xbe, 0xc6, 0x9d, 0xa5, 0x3c,
  0x72, 0xe1, 0x62, 0xb9, 0xeb, 0x9a, 0xe8, 0x3c, 0x9b, 0x7c, 0x03, 0x3a,
  0xce, 0x04, 0x5d, 0xbe, 0xee, 0x35, 0x46, 0xbe, 0x82, 0x35, 0xb0, 0xbd,
  0x3b, 0xaa, 0x64, 0xbe, 0x9c, 0x67, 0x72, 0xbd, 0x30, 0x33, 0xef, 0xbd,
  0x26, 0x50, 0x92, 0xbb, 0x3d, 0x44, 0x3b, 0x3e, 0xae, 0x61, 0x0a, 0xbd,
  0xcd, 0x23, 0xad, 0x3d, 0x8b, 0x56, 0xf9, 0xbd, 0xa2, 0x49, 0x47, 0xbd,
  0xe7, 0x43, 0x5d, 0xbe, 0xf2, 0x71, 0xc6, 0x3c, 0xa9, 0xb0, 0x07, 0xbe,
  0x7e, 0x4b, 0x07, 0x3e, 0xd6, 0xc4, 0xbb, 0xbd, 0x65, 0xb8, 0x03, 0x3d,
  0x85, 0x11, 0x27, 0xbe, 0x9d, 0x3a, 0x32, 0xbe, 0x18, 0x8b, 0x04, 0x3e,
  0x4f, 0x0d, 0x61, 0xbe, 0x15, 0xf4, 0xd1, 0xbc, 0x50, 0x07, 0x29, 0xbe,
  0xb4, 0x8f, 0xb7, 0xbd, 0x3e, 0xfb, 0x5d, 0x3d, 0xa5, 0xf1, 0x48, 0xbe,
  0x85, 0x14, 0x13, 0xbe, 0x2d, 0x97, 0x4f, 0xbd, 0x10, 0x5b, 0x32, 0xbd,
  0x7a, 0x4a, 0x17, 0xbe, 0x27, 0x96, 0x42, 0x3e, 0x48, 0x3b, 0x83, 0xbe,
  0xbf, 0x43, 0x2e, 0xbd, 0x21, 0x3f, 0x63, 0x3d, 0xff, 0x8f, 0xfb, 0xbd,
  0xf1, 0x51, 0x40, 0xbc, 0x95, 0x60, 0x04, 0xbe, 0x39, 0x69, 0x13, 0x3e,
  0x7a, 0x97, 0xca, 0xbd, 0x0e, 0x36, 0x57, 0x3e, 0xc9, 0x5c, 0x5e, 0xbd,
  0xa6, 0x9d, 0x7b, 0xbe, 0x16, 0x44, 0xbd, 0x3d, 0xb2, 0xa8, 0xe0, 0x3d,
  0x6d, 0x89, 0x03, 0xbd, 0x12, 0x6e, 0x09, 0xbd, 0x9f, 0xc6, 0x3a, 0x3e,
  0x7e, 0xef, 0xed, 0xbd, 0x2c, 0x2b, 0x29, 0xbd, 0x7c, 0xba, 0xd9, 0xbd,
  0x2a, 0x79, 0x68, 0xbe, 0x18, 0x96, 0x34, 0xbd, 0x40, 0x94, 0x86, 0xbe,
  0xa1, 0xc3, 0xaf, 0x3d, 0x22, 0x5a, 0xd0, 0x3c, 0xd6, 0x3e, 0x2f, 0xbc,
  0xc8, 0xad, 0x8a, 0xbd, 0x1e, 0xc1, 0x48, 0xbe, 0x44, 0xde, 0x17, 0xbe,
  0x01, 0xc3, 0xc4, 0xbd, 0x63, 0xf0, 0x86, 0xbc, 0xb3, 0x68, 0x80, 0xbc,
  0xfd, 0x81, 0x8e, 0xbd, 0x9c, 0xbb, 0xb1, 0x3d, 0xdf, 0x51, 0x47, 0xbd,
  0xf4, 0x40, 0xc2, 0xbd, 0xe3, 0xf1, 0x93, 0xbe, 0xab, 0x52, 0x3e, 0xba,
  0x44, 0xf1, 0x88, 0xbe, 0xbf, 0x08, 0xb3, 0xbd, 0x46, 0x1f, 0xa0, 0x3d,
  0xb1, 0xfe, 0x39, 0x3d, 0xb6, 0xe8, 0xd3, 0x3c, 0x96, 0x0c, 0x85, 0x3d,
  0xbe, 0xbc, 0x62, 0x3d, 0x16, 0x1e, 0x39, 0x3c, 0xae, 0xd1, 0x63, 0xbe,
  0x76, 0xf2, 0x4f, 0xbe, 0x71, 0xb8, 0xee, 0x3d, 0x61, 0x84, 0xe5, 0xbd,
  0x7f, 0x7b, 0xb9, 0x3d, 0xc8, 0xa9, 0x2f, 0x3e, 0x5f, 0x48, 0x87, 0xbd,
  0xf0, 0xcd, 0xa4, 0xbd, 0x34, 0xd5, 0xd5, 0xbe, 0xe8, 0x3e, 0xf3, 0xbd,
  0x4b, 0x95, 0x4b, 0xbe, 0x00, 0x3c, 0x8d, 0x3c, 0x73, 0xa6, 0xef, 0xbb,
  0xa6, 0x7a, 0x79, 0xbe, 0xa0, 0x45, 0xc9, 0xbd, 0x2c, 0x9e, 0x46, 0x3c,
  0x5b, 0x64, 0x53, 0x3e, 0xd4, 0xb5, 0x8d, 0xbe, 0xed, 0x1b, 0x2b, 0x3e,
  0x6a, 0x0a, 0x43, 0x3d, 0x65, 0xdd, 0x92, 0x3d, 0xe7, 0xcb, 0xba, 0xbd,
  0xc8, 0x01, 0x2d, 0xbe, 0x83, 0x8f, 0x8e, 0x3e, 0x23, 0xdb, 0xd4, 0xbd,
  0xae, 0x4a, 0xbe, 0xbc, 0xcd, 0x2a, 0x80, 0xbd, 0x95, 0x51, 0x57, 0xbe,
  0xdb, 0xa2, 0xef, 0xbd, 0xa9, 0x1f, 0x21, 0xbe, 0x2b, 0x5b, 0x7a, 0x3c,
  0xb7, 0xed, 0x8f, 0xbd, 0xcf, 0xcc, 0x94, 0x3e, 0x82, 0x46, 0x1e, 0x3e,
  0x63, 0xec, 0x4f, 0x3e, 0x73, 0x6a, 0xdc, 0x3d, 0x57, 0x8c, 0xc1, 0x3d,
  0x3c, 0xfa, 0x9c, 0x3d, 0x8a, 0xb6, 0x6f, 0xbe, 0xf5, 0xe5, 0x85, 0x3d,
  0x4a, 0x6a, 0x10, 0xbe, 0xb7, 0xa7, 0xf2, 0xbd, 0xef, 0x78, 0x26, 0xbd,
  0xde, 0x79, 0x4e, 0xbe, 0x3c, 0xc5, 0x1a, 0xbc, 0xb9, 0x25, 0x3d, 0xbe,
  0x3f, 0xfa, 0xd5, 0xbd, 0x0d, 0xb9, 0x40, 0x3e, 0xdd, 0xd0, 0x5e, 0xbc,
  0x3a, 0xd0, 0x70, 0xbd, 0x44, 0x20, 0x5a, 0xbe, 0x2a, 0x59, 0x5a, 0x3e,
  0x81, 0x64, 0xcd, 0xbd, 0x07, 0x6b, 0xde, 0xbc, 0xd4, 0x02, 0x1b, 0xbe,
  0x5b, 0xe6, 0x5b, 0x3e, 0x10, 0x9c, 0x3d, 0xbd, 0xda, 0x18, 0x6a, 0x3d,
  0xf8, 0x10, 0xb7, 0xbd, 0xfc, 0x70, 0x9e, 0x3d, 0x42, 0x4e, 0x09, 0xbe,
  0xad, 0x7a, 0x65, 0x3d, 0x3d, 0x70, 0xc1, 0x3c, 0xa2, 0x6b, 0x55, 0x3d,
  0x1b, 0xcc, 0x9d, 0x3e, 0xcc, 0xa1, 0x27, 0xbe, 0x39, 0x88, 0xac, 0xbc,
  0x88, 0x16, 0x3a, 0x3e, 0x8f, 0xf3, 0x74, 0xbe, 0xe1, 0xcd, 0x08, 0x3e,
  0xa4, 0x1e, 0x3c, 0x3c, 0xcb, 0xe3, 0x57, 0x3e, 0x5d, 0x98, 0xf5, 0xbd,
  0x1a, 0xf0, 0xec, 0xbd, 0x50, 0xf2, 0xd2, 0x39, 0xb2, 0x41, 0x1e, 0xbd,
  0x5f, 0x4c, 0x8b, 0xbd, 0x92, 0x9e, 0x20, 0x3d, 0x58, 0xd3, 0x3e, 0xbe,
  0x22, 0xae, 0xb5, 0xbd, 0x75, 0x50, 0x43, 0x3e, 0x49, 0xd0, 0x36, 0x3e,
  0xf9, 0x26, 0x35, 0xbe, 0x37, 0x12, 0x4e, 0x3e, 0x1e, 0x6f, 0x7b, 0xbd,
  0xce, 0xdd, 0x93, 0x3d, 0x1c, 0x07, 0x4c, 0xbe, 0xcc, 0x4f, 0x1d, 0xbd,
  0x82, 0xc9, 0x2e, 0xbe, 0xf5, 0xaa, 0x83, 0x3d, 0x8d, 0xeb, 0x5f, 0xbd,
  0x88, 0xdb, 0x48, 0xbd, 0x42, 0x92, 0x9f, 0xbb, 0x27, 0x18, 0x5f, 0xbe,
  0x75, 0x7c, 0xbf, 0xbd, 0x87, 0xea, 0xf4, 0xbd, 0x2b, 0xc3, 0xba, 0xbd,
  0xbb, 0xd9, 0xcb, 0xbc, 0xe9, 0xfb, 0x7d, 0xbd, 0xb9, 0x5d, 0x80, 0x3d,
  0xc0, 0x36, 0x63, 0xbe, 0xef, 0xa0, 0x3a, 0xbe, 0x10, 0xef, 0x91, 0xbd,
  0x0a, 0x9d, 0x59, 0xbe, 0x50, 0x38, 0x90, 0xbe, 0x66, 0x13, 0x85, 0xbd,
  0x04, 0x42, 0x87, 0x3e, 0x2d, 0x41, 0xd8, 0x3d, 0x2d, 0x32, 0x3b, 0x3e,
  0x8c, 0x05, 0x21, 0xbe, 0xde, 0x06, 0x5d, 0xbe, 0x95, 0xfa, 0xa4, 0xbe,
  0xc2, 0xed, 0x4a, 0xbe, 0x42, 0x27, 0x38, 0x3d, 0x85, 0xa7, 0x11, 0x3e,
  0x62, 0x2f, 0x0d, 0x3c, 0xb1, 0xae, 0x49, 0xbe, 0xed, 0x7b, 0x38, 0xbe,
  0x9d, 0xe3, 0x4a, 0xbe, 0x04, 0x3b, 0x29, 0x3e, 0xc3, 0x35, 0xc2, 0xbd,
  0x6c, 0x93, 0xc4, 0x3d, 0xb8, 0xfd, 0x0e, 0xbe, 0xbe, 0x64, 0xdb, 0xbd,
  0xfe, 0x3b, 0xc7, 0x3d, 0x14, 0x76, 0xa4, 0xbd, 0xed, 0x90, 0xb1, 0xbc,
  0xff, 0x4b, 0x9e, 0xbe, 0x96, 0x35, 0xaf, 0xbe, 0x3e, 0x9d, 0xe0, 0xbe,
  0x0f, 0xea, 0x3a, 0x3d, 0xcd, 0xc9, 0x04, 0x3d, 0xa9, 0x8e, 0x41, 0xbe,
  0x92, 0x4b, 0x37, 0xbe, 0xce, 0x3f, 0x77, 0xbe, 0xe0, 0x6a, 0x9a, 0xbe,
  0x75, 0x6e, 0x81, 0xbc, 0xc7, 0xf9, 0xdb, 0xbe, 0x13, 0x61, 0x8b, 0xbc,
  0xd2, 0xb5, 0x34, 0x3e, 0xd7, 0x79, 0x0b, 0xbe, 0x6f, 0x39, 0xa6, 0xbc,
  0x20, 0x60, 0xb3, 0xbd, 0xd7, 0x9e, 0x48, 0xbd, 0xfa, 0xc0, 0x1e, 0xbe,
  0xdf, 0x24, 0xfa, 0xbd, 0x4e, 0xed, 0x06, 0x3e, 0xd3, 0x52, 0x4e, 0x3d,
  0xd8, 0xd1, 0x6a, 0xbd, 0x6a, 0xfd, 0x8d, 0xbe, 0x2f, 0x4d, 0x8d, 0xbe,
  0x78, 0x48, 0x30, 0xbe, 0x7b, 0x30, 0xff, 0xbb, 0xe2, 0x2b, 0x83, 0xbe,
  0x01, 0x97, 0xb7, 0x3e, 0x11, 0x36, 0x53, 0xbe, 0x13, 0xba, 0x49, 0xbe,
  0xfa, 0x64, 0x8f, 0xbd, 0xc3, 0x6a, 0x59, 0xbe, 0x4f, 0xde, 0x20, 0xbe,
  0xa0, 0x15, 0xb1, 0xbe, 0x13, 0x23, 0x81, 0xbc, 0xba, 0x80, 0x82, 0xbc,
  0x6e, 0x62, 0x2d, 0xbe, 0xca, 0x9e, 0xa7, 0xbd, 0xf5, 0xc8, 0x2b, 0xbe,
  0x0d, 0xf5, 0x75, 0xbe, 0xac, 0xbb, 0x11, 0xbe, 0x67, 0x4b, 0x03, 0xbd,
  0xb8, 0x60, 0x98, 0x3e, 0xfc, 0x4a, 0xf7, 0x3e, 0x4c, 0x53, 0x91, 0xbd,
  0x39, 0xd8, 0x4c, 0xbe, 0x6f, 0x34, 0x89, 0x3d, 0x98, 0xab, 0xb0, 0xbe,
  0xa5, 0x80, 0x87, 0xbe, 0x31, 0xd3, 0xab, 0xbe, 0x69, 0x4e, 0x34, 0xbe,
  0xd8, 0x30, 0x34, 0xbe, 0x8e, 0xe6, 0x82, 0xbe, 0x94, 0xde, 0x18, 0xbe,
  0x8b, 0x0d, 0x94, 0xbe, 0xa6, 0x61, 0xe0, 0xbe, 0x70, 0xb6, 0x2a, 0xbe,
  0xfc, 0x92, 0xe9, 0xbc, 0x6a, 0x23, 0xc2, 0x3d, 0x5f, 0x92, 0x26, 0x3f,
  0x22, 0x0a, 0x85, 0xbd, 0x33, 0x78, 0x18, 0xbe, 0x39, 0x5b, 0xaa, 0xbe,
  0x59, 0x13, 0x78, 0xbd, 0xc0, 0x64, 0x04, 0x3c, 0x7e, 0x82, 0x3d, 0xbb,
  0x5f, 0xd0, 0xdf, 0x3d, 0xf5, 0xbb, 0xd3, 0xbc, 0xa7, 0xdf, 0x01, 0xbe,
  0xf0, 0xb9, 0x80, 0xbe, 0xf2, 0x38, 0xb2, 0xbe, 0xff, 0x7f, 0x9f, 0xbd,
  0x60, 0xa3, 0xff, 0x3d, 0xe9, 0xff, 0x1c, 0xbd, 0x26, 0x4b, 0x89, 0xbc,
  0x64, 0x1e, 0xd0, 0x3e, 0xdf, 0x4d, 0x13, 0x3f, 0xb5, 0x5b, 0x94, 0xbe,
  0x6c, 0x1a, 0xbe, 0x3e, 0xc1, 0xa2, 0x0f, 0xbe, 0x53, 0x31, 0x8e, 0x3d,
  0xb7, 0x00, 0xd8, 0xbc, 0x18, 0x77, 0x82, 0x3d, 0x2f, 0x9d, 0xf3, 0x3c,
  0x8c, 0xb2, 0x6b, 0x3e, 0x22, 0xe0, 0x68, 0xbe, 0xac, 0x73, 0x66, 0xbd,
  0xc6, 0x45, 0x8a, 0xbd, 0x7b, 0x10, 0x03, 0x3e, 0x09, 0x96, 0x91, 0xbc,
  0xa4, 0x54, 0x1c, 0x3e, 0xe3, 0x7c, 0xb0, 0x3e, 0xd1, 0xfe, 0xb5, 0x3d,
  0x92, 0xc7, 0x40, 0xbe, 0x14, 0x40, 0x87, 0x3d, 0x1d, 0xca, 0x02, 0xbd,
  0x89, 0xe6, 0x87, 0x3d, 0x55, 0x2c, 0x59, 0xbc, 0xdd, 0x72, 0x8c, 0x3d,
  0x9f, 0x01, 0xcf, 0xbd, 0xa1, 0x44, 0xce, 0x3d, 0xc8, 0xe5, 0xe7, 0xbe,
  0x21, 0x9e, 0x84, 0xbe, 0xbd, 0x9f, 0xa9, 0x3d, 0x8e, 0xb1, 0x3c, 0x3e,
  0x3c, 0x81, 0xdd, 0x3c, 0x5a, 0x73, 0x11, 0x3c, 0xff, 0x6d, 0x4b, 0x3f,
  0x71, 0xf3, 0xc6, 0x3d, 0x92, 0xc5, 0x43, 0x3c, 0x4c, 0xa8, 0xe0, 0x3b,
  0x64, 0xbf, 0x04, 0x3e, 0xcd, 0x05, 0x2e, 0xbe, 0x56, 0xb8, 0xa9, 0xbe,
  0xf1, 0x56, 0x00, 0x3c, 0x1d, 0x30, 0x28, 0xbe, 0x26, 0xea, 0x34, 0xbe,
  0x75, 0x5e, 0xb8, 0x3c, 0x46, 0x8d, 0x9d, 0xbd, 0xcd, 0x51, 0xb0, 0xbd,
  0x22, 0x47, 0xbd, 0x3d, 0x84, 0xd7, 0x21, 0x3d, 0x32, 0x09, 0xfe, 0x3d,
  0xa1, 0x39, 0x52, 0x3e, 0x88, 0xfe, 0xa7, 0xbe, 0x99, 0x11, 0x85, 0x3d,
  0x7d, 0x0c, 0xc8, 0xbe, 0xa2, 0x65, 0x98, 0x3d, 0x3d, 0x20, 0x9c, 0x3d,
  0x1d, 0xda, 0x8b, 0xbe, 0x68, 0xd3, 0x0e, 0xbd, 0xd1, 0x7e, 0x2d, 0xbd,
  0x58, 0x38, 0x2e, 0xbe, 0xd8, 0x18, 0x23, 0x3d, 0x64, 0xe6, 0xe3, 0xbc,
  0xb0, 0x7c, 0x8f, 0x3e, 0xfd, 0x97, 0x93, 0xbd, 0xfb, 0x16, 0x02, 0x3d,
  0xbc, 0xa1, 0xc3, 0x3d, 0x9a, 0x88, 0xb5, 0x3e, 0xa7, 0x9f, 0xe7, 0xbd,
  0xe0, 0x60, 0x70, 0x3d, 0x23, 0x57, 0x12, 0x3f, 0x27, 0xf3, 0x7d, 0x3d,
  0xbc, 0xfe, 0xa0, 0xbd, 0xbd, 0xb0, 0xdb, 0xbd, 0xfe, 0x72, 0x1a, 0x3d,
  0x54, 0xcf, 0x02, 0x3e, 0xe1, 0xf0, 0x43, 0xbd, 0xa4, 0x7e, 0x20, 0x3d,
  0xc2, 0x98, 0x98, 0x3d, 0xf0, 0xc2, 0xa9, 0x3e, 0x25, 0xc8, 0x4e, 0xbc,
  0x45, 0x66, 0x7b, 0x3c, 0xe3, 0xa5, 0x1b, 0x3e, 0x75, 0x1f, 0x52, 0x3e,
  0x6f, 0x5c, 0x02, 0x3e, 0x72, 0x5a, 0x62, 0x3c, 0x3e, 0x50, 0x7e, 0x3e,
  0x45, 0xc1, 0xfd, 0x3c, 0x6b, 0xc4, 0xf1, 0x3d, 0x34, 0x82, 0x68, 0xbe,
  0x96, 0x6d, 0xa8, 0x3d, 0x85, 0x3d, 0x77, 0x3d, 0x19, 0x0a, 0x69, 0xbd,
  0xc5, 0x87, 0xb4, 0x3c, 0x8b, 0x6d, 0x64, 0x3d, 0xa6, 0x53, 0xac, 0x3e,
  0xfe, 0xe2, 0x38, 0x3d, 0x2c, 0xd7, 0x25, 0x3d, 0xb8, 0x79, 0x16, 0x3e,
  0x26, 0x41, 0x7a, 0x3e, 0x94, 0xc7, 0x0f, 0x3d, 0xd5, 0xc1, 0x76, 0x3d,
  0x37, 0xcc, 0xc3, 0x3e, 0x80, 0x37, 0x15, 0x3e, 0xf4, 0x2c, 0x98, 0xbd,
  0xbb, 0x4e, 0x59, 0xbe, 0x03, 0x56, 0x16, 0x3c, 0x6b, 0x1d, 0x1d, 0xbd,
  0xca, 0x38, 0x36, 0xbd, 0x05, 0xfd, 0xd0, 0x3c, 0x58, 0x04, 0xde, 0x3c,
  0x9e, 0x15, 0x5d, 0x3e, 0x17, 0x8f, 0x64, 0xbe, 0xfa, 0x37, 0x08, 0xba,
  0x91, 0xb3, 0x69, 0xbb, 0x5c, 0x43, 0x8b, 0x3e, 0xc6, 0x87, 0x26, 0xbf,
  0x27, 0xb0, 0x53, 0x3c, 0x67, 0x30, 0xaa, 0xbe, 0x61, 0xcf, 0xc8, 0x3d,
  0x4b, 0xdf, 0xc2, 0xbd, 0x75, 0xa4, 0xed, 0xbe, 0x3f, 0x23, 0x10, 0x3d,
  0x3c, 0x9a, 0x05, 0xbe, 0x47, 0x8c, 0x4b, 0xbe, 0xc2, 0xea, 0x25, 0x3e,
  0x47, 0x4c, 0xe0, 0x3c, 0x23, 0x8d, 0x27, 0x3d, 0x89, 0x10, 0x60, 0xbe,
  0xc6, 0x1a, 0xae, 0x3c, 0xf9, 0x89, 0xc2, 0x3d, 0x9e, 0x42, 0x8b, 0x3e,
  0x6b, 0xad, 0x88, 0xbe, 0xf4, 0x7f, 0xb6, 0x3c, 0xb6, 0xbe, 0x0e, 0xbe,
  0x15, 0xd8, 0x89, 0x3d, 0x7e, 0x7d, 0xe9, 0xbc, 0x4d, 0xad, 0x23, 0x3d,
  0x52, 0x49, 0x22, 0x3c, 0xaf, 0x24, 0x9a, 0xbd, 0x4e, 0xd3, 0x86, 0xbd,
  0xb8, 0x1d, 0x43, 0x3e, 0x4f, 0xc5, 0x2f, 0x3d, 0x8f, 0xda, 0xa3, 0xbc,
  0x86, 0x67, 0xed, 0xbd, 0x9f, 0x7b, 0x33, 0x3d, 0x38, 0x6a, 0x35, 0xbd,
  0x8f, 0x22, 0x6c, 0x3d, 0xe2, 0xb2, 0x42, 0xbd, 0x86, 0x1a, 0xc6, 0xbd,
  0x63, 0x49, 0x9e, 0xbe, 0xf1, 0x7d, 0x3b, 0x3d, 0x3a, 0x86, 0x48, 0xbe,
  0x6f, 0xfc, 0x80, 0x3e, 0x3e, 0x43, 0x89, 0xbe, 0x38, 0xcf, 0xd6, 0xbd,
  0x17, 0x40, 0x07, 0xbe, 0x7f, 0xcd, 0xc3, 0x3d, 0xf7, 0xf2, 0xd0, 0x3d,
  0xd0, 0x30, 0x9b, 0xbe, 0xe2, 0x0d, 0x52, 0x3e, 0xc1, 0x18, 0x35, 0xbe,
  0x93, 0x1f, 0x21, 0xbf, 0x74, 0x56, 0x82, 0xbd, 0xdd, 0x86, 0x4b, 0xbe,
  0x77, 0x27, 0x3b, 0xbe, 0xb6, 0xf2, 0x81, 0xbe, 0x9b, 0x0d, 0x9b, 0x3c,
  0xea, 0xe5, 0x6e, 0x3d, 0xf2, 0x77, 0x44, 0x3e, 0x6e, 0x3e, 0x36, 0x3e,
  0x5f, 0xc5, 0x8e, 0xbd, 0x21, 0xa1, 0x75, 0x3e, 0xe2, 0x57, 0x3e, 0x3d,
  0xbf, 0xc9, 0x1d, 0x3e, 0x88, 0xad, 0xd6, 0xbd, 0xb6, 0xd5, 0x67, 0x3e,
  0x3f, 0x5b, 0x9e, 0xbd, 0x9d, 0xed, 0x98, 0xbe, 0x25, 0x8e, 0xdc, 0x3d,
  0xd9, 0x5d, 0xd6, 0xbd, 0xfb, 0x70, 0xd6, 0xbd, 0x55, 0xdc, 0xe9, 0xbd,
  0x0a, 0x6b, 0xb8, 0xbe, 0x15, 0xea, 0x6e, 0x3d, 0x7e, 0xa0, 0x23, 0x3e,
  0xbb, 0xe7, 0xb1, 0x3d, 0x6a, 0x06, 0x8d, 0x3e, 0xa6, 0x3c, 0x81, 0x3e,
  0x44, 0xd3, 0x91, 0xbd, 0x4f, 0x86, 0xba, 0xbb, 0xd9, 0xb4, 0x12, 0xbe,
  0xf8, 0x41, 0x31, 0x3c, 0x76, 0x2b, 0x41, 0xbd, 0x7a, 0xb7, 0x4f, 0x3d,
  0x25, 0x95, 0x31, 0xbe, 0xa0, 0x79, 0xda, 0x3c, 0xf9, 0x6f, 0x00, 0x3d,
  0x41, 0x5f, 0x6f, 0x3e, 0x48, 0x41, 0x76, 0xbe, 0xd8, 0xc5, 0xe4, 0x3d,
  0xf6, 0xc4, 0x92, 0x3e, 0x41, 0xc6, 0x7b, 0x3d, 0x43, 0xb9, 0x40, 0x3c,
  0x1a, 0xd2, 0x63, 0x3e, 0xdb, 0x10, 0x18, 0x3e, 0x8e, 0x87, 0xb1, 0xb9,
  0x00, 0x09, 0x99, 0x3c, 0xf1, 0x44, 0x0f, 0x3d, 0xc3, 0xa5, 0x6d, 0x3a,
  0x23, 0x0a, 0x28, 0xbd, 0x57, 0xa8, 0x30, 0x3d, 0x72, 0x89, 0x05, 0x3c,
  0x42, 0xd3, 0x68, 0x3c, 0x03, 0xad, 0x92, 0x3d, 0x81, 0x4d, 0x9a, 0xbd,
  0xbb, 0xe3, 0x90, 0x3c, 0xd2, 0xab, 0x64, 0x3e, 0xe2, 0x75, 0x78, 0x3e,
  0x4f, 0x80, 0x39, 0x3d, 0xda, 0x53, 0x13, 0x3e, 0x08, 0xeb, 0x0a, 0x3d,
  0x7a, 0xf8, 0xbc, 0x3d, 0xb3, 0x85, 0x3c, 0xbe, 0xd3, 0x7a, 0xc0, 0x3d,
  0x56, 0xe9, 0xb6, 0xba, 0x06, 0x66, 0xa9, 0xbe, 0xb0, 0x82, 0x06, 0xbe,
  0xa7, 0x1b, 0x86, 0xbe, 0xe3, 0xfe, 0xaf, 0x3c, 0x34, 0x92, 0xcd, 0xbd,
  0x77, 0xc5, 0x66, 0xbe, 0xf5, 0x97, 0x1a, 0xbe, 0x9e, 0xe3, 0x44, 0x3e,
  0xfb, 0xe6, 0x94, 0xbc, 0x96, 0xaa, 0x11, 0xbc, 0x72, 0xda, 0xee, 0x3d,
  0xa8, 0x4e, 0xb8, 0xbe, 0xa6, 0x44, 0xd8, 0xbd, 0x05, 0x62, 0x0e, 0xbe,
  0x5a, 0x7b, 0x07, 0xbe, 0xab, 0x64, 0x27, 0x3d, 0x1c, 0x0a, 0xbb, 0xbe,
  0xe2, 0x33, 0x6e, 0xbe, 0x22, 0x50, 0x90, 0xbe, 0x60, 0x57, 0xf0, 0x3d,
  0xa6, 0xda, 0x9f, 0xbd, 0x5d, 0x6a, 0xbb, 0xbe, 0x1a, 0x39, 0x50, 0xbe,
  0x13, 0xe3, 0x20, 0xbe, 0xe3, 0x10, 0x1d, 0x3d, 0xbc, 0xf0, 0x71, 0xbd,
  0x59, 0xce, 0x28, 0xbe, 0xed, 0x2d, 0x18, 0xbf, 0xb5, 0x88, 0x32, 0xbe,
  0x16, 0x12, 0x06, 0xbe, 0xaf, 0x36, 0x41, 0xbe, 0xaa, 0x8d, 0x9b, 0x3d,
  0x8d, 0xbe, 0xae, 0x3d, 0x38, 0xe8, 0xbc, 0xbe, 0x00, 0x6b, 0x8b, 0xbe,
  0xf5, 0x00, 0x12, 0x3e, 0x52, 0xdd, 0x04, 0xbe, 0x35, 0xb2, 0x5c, 0xbe,
  0x82, 0xbb, 0xf1, 0x3d, 0x15, 0xab, 0x77, 0x3e, 0x5f, 0xde, 0x6e, 0x3d,
  0x25, 0x7f, 0xbb, 0xbd, 0x07, 0x98, 0x47, 0x3e, 0xdb, 0x74, 0xe6, 0xbc,
  0xcb, 0x0c, 0x93, 0x3d, 0xf3, 0x79, 0x38, 0x3d, 0x8d, 0xd2, 0x1a, 0xbe,
  0xef, 0x1e, 0xf2, 0xbc, 0x88, 0x02, 0xe0, 0x3d, 0x9b, 0x79, 0xaa, 0xbd,
  0x3d, 0x7e, 0xac, 0x3d, 0x1d, 0x4b, 0xe3, 0xbd, 0x9c, 0x9d, 0x98, 0x3e,
  0xe8, 0x0a, 0x63, 0x3d, 0x92, 0x8d, 0xf4, 0x3c, 0x54, 0xb2, 0x4e, 0x3c,
  0xb0, 0x9d, 0xd9, 0x3d, 0x1c, 0xe8, 0x03, 0xbd, 0x3f, 0x8a, 0x4e, 0x3e,
  0x60, 0x5d, 0xbe, 0x3d, 0x2a, 0xdb, 0x73, 0xbc, 0x78, 0x81, 0x0b, 0xbd,
  0xb3, 0xb3, 0x57, 0xbe, 0xfa, 0x0b, 0x52, 0xbd, 0xf3, 0x45, 0x47, 0x3e,
  0x91, 0x12, 0x48, 0xbe, 0xf9, 0x98, 0x69, 0x3e, 0x08, 0xca, 0xa4, 0xbd,
  0x40, 0x7e, 0xa9, 0xbc, 0x79, 0x72, 0xde, 0x3d, 0xa6, 0x82, 0x99, 0xbd,
  0x0d, 0x97, 0xa3, 0x3d, 0x1c, 0xed, 0xd8, 0x3c, 0xfd, 0xa4, 0x23, 0xbe,
  0xfb, 0x2d, 0x25, 0x3d, 0xef, 0x02, 0x5e, 0x3d, 0xe1, 0x74, 0x80, 0x3b,
  0xe6, 0x66, 0x82, 0xbe, 0xef, 0x6d, 0x1f, 0x3d, 0xc8, 0x32, 0x35, 0x3b,
  0x66, 0x39, 0xbc, 0x3d, 0x03, 0x6e, 0x42, 0xbd, 0xc7, 0x8a, 0x2c, 0xbb,
  0x25, 0xb5, 0xa7, 0xbc, 0x6b, 0x29, 0x34, 0x3e, 0xd1, 0x42, 0x98, 0x3d,
  0x77, 0xdb, 0xce, 0x3c, 0x5c, 0xa7, 0x4a, 0x3d, 0xc7, 0xcc, 0x96, 0x3d,
  0xec, 0x89, 0xfa, 0x3a, 0x53, 0x7b, 0xa4, 0xbd, 0x79, 0x59, 0xe4, 0x3c,
  0x32, 0x66, 0x9a, 0xbd, 0x97, 0xf7, 0xbb, 0xbe, 0x73, 0x0e, 0x50, 0xbd,
  0xc2, 0x64, 0xbf, 0xbc, 0x9d, 0x0f, 0x5a, 0x3d, 0x26, 0x47, 0x90, 0xbe,
  0xe4, 0x2d, 0x89, 0x3e, 0x17, 0x86, 0x4e, 0x3d, 0x81, 0x48, 0x61, 0xbd,
  0x6f, 0x58, 0x41, 0x3d, 0x6d, 0x48, 0x78, 0xbd, 0xca, 0x19, 0xac, 0x3c,
  0x35, 0x5c, 0xb0, 0xbc, 0x94, 0xef, 0x05, 0xbe, 0xef, 0x64, 0xab, 0xbd,
  0xb5, 0xf5, 0x11, 0xbd, 0xa6, 0x90, 0xd2, 0xbc, 0x32, 0xbf, 0x97, 0xbe,
  0x3d, 0xb2, 0x44, 0x3d, 0xad, 0xdc, 0x6c, 0x3b, 0x47, 0x7c, 0x14, 0x3e,
  0x42, 0xe9, 0xdd, 0xbd, 0xbc, 0x10, 0x88, 0xbc, 0xcb, 0x9f, 0x58, 0x3d,
  0x91, 0x94, 0x42, 0x3e, 0x29, 0x74, 0x03, 0x3e, 0xc3, 0x92, 0x56, 0x3d,
  0x4c, 0x35, 0x6e, 0x3e, 0x01, 0x17, 0x49, 0x3e, 0xa7, 0xfb, 0xc6, 0xbd,
  0xcb, 0x68, 0x20, 0x3e, 0x98, 0xc3, 0xcb, 0xbd, 0x4f, 0x91, 0xa1, 0xbb,
  0xad, 0x79, 0x38, 0xbe, 0x63, 0xff, 0x6d, 0x3e, 0xec, 0xf6, 0xbc, 0xbc,
  0x4a, 0x28, 0x95, 0xbd, 0xd8, 0xec, 0xf7, 0xbd, 0x98, 0x16, 0x04, 0x3f,
  0x84, 0x44, 0xc1, 0x3c, 0x12, 0x85, 0x75, 0x3e, 0x93, 0x4b, 0x34, 0x3d,
  0xca, 0x65, 0x6b, 0xbd, 0x54, 0x02, 0x6f, 0xbd, 0x59, 0x77, 0xba, 0x3d,
  0x55, 0xac, 0xcf, 0x3d, 0x44, 0x7b, 0x72, 0xbc, 0x7b, 0xd9, 0x2a, 0xbe,
  0xbf, 0xfa, 0x38, 0xbd, 0x3d, 0xa2, 0x5e, 0x3d, 0xf4, 0xdf, 0xb2, 0x3d,
  0xa6, 0x9e, 0x63, 0xbc, 0x19, 0x30, 0xaa, 0xbb, 0x43, 0x63, 0xad, 0xbd,
  0x8a, 0x46, 0xce, 0x3d, 0xd7, 0xd4, 0xc0, 0x3c, 0x65, 0xe4, 0xac, 0x3d,
  0xfa, 0xcb, 0x9d, 0xbd, 0xf6, 0x5d, 0xcc, 0xbe, 0x17, 0x8a, 0x1e, 0xbe,
  0x81, 0x10, 0x9d, 0x3d, 0x1b, 0x03, 0x22, 0xbd, 0xd7, 0x86, 0xa3, 0xbe,
  0x62, 0x86, 0xb0, 0xbe, 0xa7, 0x99, 0x43, 0xbe, 0x7a, 0x77, 0xe2, 0xbe,
  0x5f, 0x29, 0x90, 0xbe, 0x9d, 0x49, 0x5a, 0xbd, 0x10, 0x69, 0x6b, 0x3e,
  0x03, 0x20, 0xd7, 0xbc, 0x12, 0xee, 0x6b, 0xbe, 0x26, 0x77, 0x20, 0xbd,
  0xf1, 0x05, 0x72, 0xbe, 0x0b, 0xc6, 0x3d, 0x3e, 0x6f, 0x88, 0xfe, 0xbc,
  0x51, 0x04, 0xb1, 0xbd, 0x0b, 0x86, 0x35, 0xbd, 0xf7, 0x72, 0x8e, 0xbb,
  0xa7, 0x57, 0x3e, 0x3d, 0x2a, 0x9c, 0x3d, 0xbe, 0x50, 0xaa, 0x57, 0xbe,
  0x1a, 0xfb, 0xfb, 0xbd, 0x8e, 0xb5, 0x51, 0xbe, 0xee, 0xe2, 0x6d, 0xbd,
  0x02, 0xfc, 0x76, 0x3e, 0x75, 0xb3, 0x1d, 0x3f, 0x6a, 0xe7, 0x57, 0x3e,
  0x09, 0x45, 0x06, 0xbd, 0x42, 0x3a, 0xf1, 0x3d, 0xb9, 0x77, 0x54, 0x3e,
  0x94, 0xf2, 0x00, 0x3e, 0x91, 0x96, 0xcb, 0xbd, 0xf2, 0x7f, 0x57, 0x3e,
  0x73, 0xeb, 0xa5, 0xbc, 0x67, 0x72, 0xcd, 0x3d, 0x12, 0x87, 0x08, 0xbe,
  0x2a, 0x84, 0x97, 0xbd, 0xc9, 0xdf, 0xb4, 0xbd, 0x93, 0x8f, 0xef, 0xbc,
  0x9c, 0xbe, 0x39, 0xbc, 0x98, 0xa5, 0x12, 0xbd, 0x73, 0x58, 0x2d, 0x3f,
  0xad, 0xf0, 0xdb, 0x3d, 0xdc, 0x84, 0xf7, 0xbd, 0xdd, 0x0b, 0xd7, 0x3d,
  0xa5, 0xf7, 0x5d, 0x3e, 0xcb, 0xbe, 0xa1, 0x3b, 0xff, 0xbe, 0xa2, 0xbd,
  0x2f, 0x66, 0x13, 0x3e, 0xe6, 0x6e, 0x20, 0x3e, 0x37, 0x59, 0x0a, 0x3e,
  0x0d, 0xde, 0xa9, 0x3d, 0xef, 0x22, 0xe9, 0xbd, 0x9d, 0x42, 0x30, 0xbe,
  0x4b, 0x92, 0x98, 0xbc, 0x97, 0x4f, 0x27, 0x3d, 0x6d, 0xdb, 0xc3, 0x3d,
  0xfd, 0xaf, 0x1b, 0x3f, 0x8f, 0x1b, 0xbf, 0xbd, 0xf0, 0x37, 0xd9, 0xbd,
  0x7a, 0x9f, 0x24, 0xbd, 0x9e, 0x20, 0x53, 0x3e, 0x26, 0xce, 0xc7, 0x3c,
  0xcf, 0x56, 0x80, 0xbd, 0xdd, 0xd6, 0x3d, 0x3e, 0x60, 0x42, 0x38, 0x3d,
  0x59, 0x2a, 0xbc, 0xbd, 0x17, 0xe7, 0xe5, 0x3c, 0x3e, 0x47, 0xbb, 0xbd,
  0xb6, 0xcb, 0x94, 0xbe, 0x54, 0x84, 0x19, 0xbe, 0xac, 0xd4, 0x21, 0xbc,
  0x6c, 0xb6, 0x86, 0x3e, 0x2b, 0x60, 0xfc, 0x3e, 0x24, 0x15, 0xf2, 0xbd,
  0x76, 0x79, 0xe6, 0xbd, 0x5a, 0xe5, 0x5e, 0xbd, 0xed, 0x60, 0x53, 0x3e,
  0x96, 0x9b, 0xd1, 0xbd, 0x23, 0x44, 0xd7, 0xbd, 0x6d, 0x85, 0xd4, 0x3d,
  0x48, 0xfd, 0x94, 0xba, 0x74, 0xf9, 0x65, 0xbe, 0x62, 0xdd, 0xae, 0x3d,
  0xa4, 0x81, 0x31, 0xbe, 0x51, 0x80, 0x96, 0xbe, 0xab, 0x1e, 0xcd, 0xbc,
  0x8f, 0xa7, 0x5b, 0xbc, 0x1f, 0x58, 0x16, 0x3e, 0xee, 0x1c, 0x1f, 0x3f,
  0x7d, 0xf4, 0xcc, 0x3d, 0x36, 0x69, 0xe1, 0xbd, 0x8f, 0x65, 0x87, 0xbe,
  0x66, 0x48, 0x98, 0x3e, 0xcf, 0x6d, 0x0a, 0xbe, 0xf3, 0x9a, 0x08, 0x3c,
  0x3e, 0xe9, 0xfb, 0x3d, 0x0d, 0x22, 0x87, 0xbb, 0x79, 0x29, 0x85, 0xbd,
  0x36, 0x3f, 0x29, 0xbd, 0x5d, 0x8d, 0x63, 0x3c, 0x8c, 0x33, 0x4b, 0xbd,
  0xa9, 0x13, 0x16, 0xbe, 0x5d, 0xf9, 0x26, 0xbd, 0xf7, 0xf8, 0x4e, 0xbd,
  0x30, 0xed, 0x57, 0x3f, 0x02, 0xc5, 0x4a, 0xbc, 0x52, 0xf7, 0x07, 0xbe,
  0xe2, 0x1f, 0x5a, 0xbe, 0xc2, 0xa2, 0x41, 0x3e, 0x72, 0x4d, 0xee, 0x3d,
  0xef, 0x2e, 0x6f, 0xbe, 0x07, 0x05, 0x9e, 0xbd, 0xfc, 0x8f, 0x99, 0x3d,
  0x50, 0xec, 0x97, 0x3e, 0x47, 0x29, 0xbd, 0x3d, 0x24, 0x2c, 0xd7, 0xbd,
  0xe0, 0x82, 0x95, 0x3d, 0x8d, 0xba, 0x3f, 0xbd, 0x6d, 0x90, 0xb1, 0x3c,
  0x95, 0x45, 0x7b, 0xbe, 0x1a, 0x5d, 0xd2, 0x3d, 0x63, 0x6f, 0x18, 0x3f,
  0x64, 0xf8, 0x4a, 0x3d, 0xdc, 0x8a, 0xdd, 0x3e, 0xb4, 0xc3, 0xeb, 0xbd,
  0x14, 0xe4, 0x09, 0x3d, 0xf2, 0xa7, 0xd1, 0xbe, 0x31, 0x06, 0xf4, 0xbc,
  0x5d, 0x5c, 0xec, 0xbd, 0xf6, 0x7b, 0xe3, 0x3d, 0x7c, 0x41, 0xbd, 0x3d,
  0x3b, 0xc2, 0x80, 0xbd, 0x67, 0xed, 0x0a, 0x3d, 0xfb, 0xc0, 0xea, 0xbd,
  0x2d, 0x52, 0x11, 0x3d, 0xd4, 0xe2, 0xee, 0xbc, 0xe6, 0x98, 0x12, 0xbe,
  0x22, 0xaf, 0x35, 0x3e, 0x41, 0xa4, 0x4d, 0x3d, 0xd5, 0xe5, 0x0f, 0xbe,
  0x63, 0x26, 0xf0, 0xbd, 0x60, 0x93, 0x14, 0xbd, 0x13, 0xf5, 0x95, 0xbe,
  0xb9, 0x8a, 0x8b, 0xbd, 0x80, 0x4a, 0x5b, 0xbd, 0x72, 0x19, 0x8e, 0xbb,
  0xf3, 0x13, 0xcb, 0x3d, 0x83, 0x65, 0x87, 0x3d, 0xb2, 0x96, 0x20, 0x3d,
  0x6b, 0x05, 0x6a, 0x3c, 0x21, 0x22, 0x83, 0x3b, 0x84, 0x11, 0xbe, 0xbd,
  0xbd, 0x73, 0x31, 0x3d, 0x8a, 0xf8, 0x82, 0xbd, 0xb2, 0x22, 0x96, 0x3c,
  0x33, 0x96, 0x89, 0x3c, 0x8a, 0x1c, 0xc0, 0xbd, 0xb7, 0x8d, 0x3f, 0x3c,
  0xd3, 0xed, 0xd6, 0xbe, 0xee, 0x9d, 0x23, 0xbe, 0x8e, 0xc6, 0x4c, 0xbe,
  0x5c, 0xaf, 0x64, 0x3d, 0xa0, 0x75, 0x63, 0x3d, 0x39, 0x8b, 0x32, 0x3d,
  0x62, 0x85, 0x97, 0x3d, 0x92, 0x60, 0x2c, 0x3d, 0xb9, 0x98, 0x8d, 0x3b,
  0x72, 0x78, 0x83, 0xbd, 0xde, 0xce, 0x50, 0xbe, 0x24, 0x82, 0x85, 0x3e,
  0xef, 0xdb, 0xe1, 0x3c, 0xb6, 0xc1, 0x14, 0xbd, 0x41, 0x29, 0x8f, 0xbc,
  0xd9, 0xcc, 0x2c, 0xbd, 0xf7, 0x78, 0xcb, 0xbe, 0x10, 0xb0, 0x8a, 0xbd,
  0xd5, 0x9a, 0x2e, 0x3e, 0x32, 0x45, 0xbb, 0x3d, 0xc4, 0xfa, 0x4d, 0x3d,
  0x96, 0x3c, 0xa0, 0xbb, 0xd9, 0xfe, 0xbc, 0x3c, 0x20, 0xa4, 0x29, 0xbb,
  0xa2, 0x8d, 0xba, 0x3c, 0xb2, 0x77, 0x2c, 0xbe, 0x10, 0xd9, 0xf4, 0xbc,
  0xcc, 0x7c, 0x07, 0x3f, 0xc1, 0xbf, 0xa5, 0x3c, 0x1c, 0xb5, 0x86, 0x3e,
  0x9e, 0x82, 0xea, 0xbd, 0xfd, 0x91, 0x60, 0x3d, 0x02, 0x73, 0x18, 0xbf,
  0x7e, 0xa4, 0xea, 0xbd, 0xa3, 0xb5, 0x63, 0xbd, 0x87, 0x33, 0xac, 0x3e,
  0xe4, 0x11, 0x50, 0x3e, 0x6b, 0xac, 0x80, 0xbb, 0x31, 0x39, 0x87, 0x3b,
  0x09, 0xc6, 0x01, 0xbd, 0x14, 0x3f, 0xe3, 0x3c, 0xb9, 0x68, 0x83, 0xbe,
  0xba, 0xc2, 0x3b, 0x3d, 0xd4, 0xb5, 0xe4, 0x3e, 0xf1, 0xc2, 0xb1, 0x3c,
  0x6d, 0x90, 0x02, 0x3f, 0x4d, 0xf9, 0xfb, 0xbd, 0x37, 0xef, 0xda, 0x3d,
  0xbb, 0xb8, 0x28, 0xbc, 0x55, 0x56, 0x03, 0xbd, 0xd5, 0x47, 0xfb, 0xbc,
  0x44, 0x20, 0x4b, 0x3c, 0x94, 0x9a, 0x0a, 0x3e, 0xf9, 0x15, 0x78, 0x3d,
  0x1b, 0x4d, 0x32, 0x3c, 0xcf, 0xdc, 0xe1, 0xbc, 0x8e, 0x9a, 0x8d, 0xbc,
  0x73, 0x03, 0x88, 0xbd, 0xa9, 0xb2, 0xda, 0xbe, 0x84, 0x36, 0x7d, 0x3e,
  0x00, 0x28, 0x06, 0xbd, 0x56, 0xaa, 0x61, 0x3e, 0xea, 0xf9, 0x12, 0xbe,
  0x5d, 0x35, 0x1b, 0xbe, 0x8b, 0xc7, 0x9d, 0x3d, 0xd9, 0x13, 0x4c, 0xbd,
  0x38, 0xb1, 0x49, 0xbe, 0x10, 0x9f, 0x2d, 0xbd, 0x6a, 0xa7, 0xe1, 0xbd,
  0xe6, 0xcc, 0x0c, 0x3c, 0x71, 0xfd, 0xae, 0xbd, 0x34, 0x57, 0x1b, 0xbe,
  0x9e, 0x4f, 0x52, 0xbe, 0xac, 0x3a, 0x28, 0x3d, 0x31, 0x66, 0x1f, 0xbd,
  0x2d, 0x02, 0x4a, 0xbe, 0x92, 0xc9, 0xc3, 0xbd, 0xa2, 0xa2, 0x3d, 0xbe,
  0xa7, 0xbe, 0x68, 0x3d, 0x91, 0x59, 0x64, 0xbe, 0xd8, 0xc1, 0x8e, 0xbe,
  0x01, 0xc3, 0x9d, 0x3d, 0x7d, 0x49, 0x9e, 0xbd, 0x6a, 0x94, 0x15, 0xbe,
  0x92, 0x99, 0x15, 0xbe, 0xfc, 0x92, 0xc5, 0x3c, 0x63, 0x0c, 0xf0, 0xbd,
  0x9a, 0x85, 0x21, 0xbe, 0x18, 0x8e, 0x13, 0xbe, 0xcf, 0x06, 0x3a, 0x3d,
  0xda, 0x1e, 0x25, 0x3f, 0x5c, 0x64, 0xbb, 0x3d, 0x48, 0x14, 0xad, 0xbe,
  0x18, 0xab, 0x09, 0x3e, 0x23, 0x12, 0x6a, 0x3d, 0xf5, 0xba, 0x9c, 0x3b,
  0x37, 0x3b, 0xe0, 0xbc, 0x2d, 0xd1, 0x15, 0x3e, 0x1a, 0x28, 0x53, 0xbe,
  0x1f, 0x59, 0x07, 0x3e, 0x03, 0x44, 0x6d, 0xbd, 0x16, 0xf7, 0x37, 0xbe,
  0x66, 0xa5, 0x85, 0xbd, 0x3a, 0x72, 0xd6, 0x3d, 0xdd, 0x29, 0x89, 0xbe,
  0x39, 0xa0, 0xa0, 0xbd, 0x47, 0xc8, 0x73, 0x3f, 0x90, 0x2d, 0x11, 0xbd,
  0x12, 0x1e, 0xcf, 0x3d, 0xb9, 0xea, 0x89, 0x3d, 0x0b, 0x20, 0x44, 0x3e,
  0x32, 0xb9, 0xcd, 0xbd, 0x74, 0x41, 0xb1, 0xbc, 0x2e, 0xc3, 0x1d, 0x3e,
  0x5e, 0x33, 0x4f, 0xbe, 0x55, 0x94, 0xcc, 0x3c, 0x25, 0x3f, 0xa7, 0xbd,
  0x3d, 0x8c, 0x1d, 0xbe, 0x6b, 0x53, 0x2b, 0xbe, 0xeb, 0xce, 0xa8, 0x3d,
  0x2b, 0x78, 0xf8, 0xbd, 0xe9, 0xc5, 0x02, 0x3e, 0x90, 0x33, 0x37, 0x3f,
  0x9b, 0x47, 0xe0, 0x3d, 0x25, 0x4d, 0x55, 0xbe, 0x2d, 0xed, 0xa3, 0xbd,
  0x95, 0xd2, 0x0b, 0x3e, 0x53, 0x00, 0x65, 0xbe, 0xb8, 0x74, 0x6c, 0xbe,
  0x14, 0x4d, 0x81, 0xbd, 0x9f, 0xc8, 0x70, 0xbe, 0xcc, 0x83, 0x32, 0x3e,
  0x34, 0xf5, 0x86, 0xbc, 0xfb, 0x00, 0xeb, 0xbd, 0x7e, 0x32, 0x0b, 0xbe,
  0xf7, 0x82, 0x25, 0xbe, 0x50, 0x36, 0x61, 0xbe, 0x4d, 0x56, 0x81, 0x3e,
  0xee, 0x74, 0x4a, 0x3f, 0x6b, 0xe5, 0xd5, 0x3d, 0x90, 0xf6, 0x81, 0xbe,
  0xf0, 0x83, 0x30, 0xbe, 0xa8, 0x88, 0x28, 0x3e, 0x65, 0xfa, 0x5a, 0xbe,
  0x3b, 0xb9, 0xb4, 0xbd, 0x55, 0x01, 0x40, 0xbd, 0xfd, 0x71, 0xa6, 0x3d,
  0xdf, 0x95, 0x9a, 0xbe, 0xb8, 0xaf, 0x74, 0xbe, 0xbc, 0x13, 0x3c, 0xbd,
  0xa6, 0xb5, 0x1e, 0xbe, 0x1b, 0xfe, 0x84, 0xbd, 0x85, 0x1d, 0x36, 0xbe,
  0xa1, 0xfa, 0x44, 0x3e, 0x96, 0x23, 0x8d, 0x3f, 0xea, 0x9e, 0x42, 0xbe,
  0x60, 0x3c, 0x14, 0xbd, 0xe3, 0x7c, 0x31, 0xbe, 0xa1, 0xbe, 0x6c, 0x3e,
  0x81, 0x49, 0x11, 0xbe, 0xfa, 0x3d, 0x57, 0xbe, 0xe9, 0x04, 0xed, 0xbd,
  0xc9, 0x0b, 0x3d, 0x3d, 0xc2, 0xc7, 0xdb, 0x3c, 0x15, 0x00, 0x1a, 0xbd,
  0xd5, 0x86, 0xc6, 0xbd, 0x37, 0xc2, 0x43, 0xbe, 0x07, 0x10, 0xa3, 0x3c,
  0x42, 0xa0, 0xeb, 0xbd, 0xd1, 0x34, 0x8b, 0x3c, 0x1c, 0xa6, 0x9a, 0x3f,
  0x14, 0xc1, 0x10, 0xbd, 0x64, 0xaf, 0x55, 0x3d, 0x8d, 0xfe, 0x4f, 0xbe,
  0x23, 0x4c, 0xc1, 0x3d, 0x62, 0xfd, 0xff, 0xff, 0x10, 0x00, 0x00, 0x00,
  0x07, 0x00, 0x00, 0x00, 0x14, 0x00, 0x00, 0x00, 0x2c, 0x00, 0x00, 0x00,
  0x02, 0x00, 0x00, 0x00, 0x10, 0x00, 0x00, 0x00, 0x70, 0x00, 0x00, 0x00,
  0x17, 0x00, 0x00, 0x00, 0x73, 0x65, 0x71, 0x75, 0x65, 0x6e, 0x74, 0x69,
  0x61, 0x6c, 0x2f, 0x64, 0x65, 0x6e, 0x73, 0x65, 0x2f, 0x4d, 0x61, 0x74,
  0x4d, 0x75, 0x6c, 0x00, 0xcc, 0xfc, 0xff, 0xff, 0xd6, 0xfd, 0xff, 0xff,
  0x04, 0x00, 0x00, 0x00, 0x08, 0x00, 0x00, 0x00, 0xff, 0xff, 0xff, 0xff,
  0x70, 0x00, 0x00, 0x00, 0x00, 0x00, 0x0e, 0x00, 0x18, 0x00, 0x08, 0x00,
  0x07, 0x00, 0x0c, 0x00, 0x10, 0x00, 0x14, 0x00, 0x0e, 0x00, 0x00, 0x00,
  0x00, 0x00, 0x00, 0x02, 0x10, 0x00, 0x00, 0x00, 0x06, 0x00, 0x00, 0x00,
  0x10, 0x00, 0x00, 0x00, 0x2c, 0x00, 0x00, 0x00, 0x01, 0x00, 0x00, 0x00,
  0x02, 0x00, 0x00, 0x00, 0x18, 0x00, 0x00, 0x00, 0x73, 0x65, 0x71, 0x75,
  0x65, 0x6e, 0x74, 0x69, 0x61, 0x6c, 0x2f, 0x66, 0x6c, 0x61, 0x74, 0x74,
  0x65, 0x6e, 0x2f, 0x43, 0x6f, 0x6e, 0x73, 0x74, 0x00, 0x00, 0x00, 0x00,
  0x34, 0xfd, 0xff, 0xff, 0x3e, 0xfe, 0xff, 0xff, 0x04, 0x00, 0x00, 0x00,
  0x10, 0x00, 0x00, 0x00, 0xe2, 0xae, 0x5c, 0xc0, 0x1e, 0x9d, 0x90, 0xc0,
  0x17, 0x2a, 0x96, 0x3f, 0x50, 0xbc, 0xb3, 0x3f, 0x26, 0xfe, 0xff, 0xff,
  0x10, 0x00, 0x00, 0x00, 0x05, 0x00, 0x00, 0x00, 0x10, 0x00, 0x00, 0x00,
  0x44, 0x00, 0x00, 0x00, 0x01, 0x00, 0x00, 0x00, 0x04, 0x00, 0x00, 0x00,
  0x32, 0x00, 0x00, 0x00, 0x73, 0x65, 0x71, 0x75, 0x65, 0x6e, 0x74, 0x69,
  0x61, 0x6c, 0x2f, 0x64, 0x65, 0x6e, 0x73, 0x65, 0x5f, 0x31, 0x2f, 0x42,
  0x69, 0x61, 0x73, 0x41, 0x64, 0x64, 0x2f, 0x52, 0x65, 0x61, 0x64, 0x56,
  0x61, 0x72, 0x69, 0x61, 0x62, 0x6c, 0x65, 0x4f, 0x70, 0x2f, 0x72, 0x65,
  0x73, 0x6f, 0x75, 0x72, 0x63, 0x65, 0x00, 0x00, 0xa8, 0xfd, 0xff, 0xff,
  0xb2, 0xfe, 0xff, 0xff, 0x04, 0x00, 0x00, 0x00, 0x40, 0x00, 0x00, 0x00,
  0xe5, 0x37, 0xb6, 0x3e, 0xa0, 0xf9, 0x82, 0xbe, 0x9f, 0x74, 0x97, 0xbe,
  0x15, 0x56, 0xd7, 0xbe, 0x51, 0x16, 0x43, 0x3f, 0xcd, 0x3c, 0x93, 0xbf,
  0xae, 0xb9, 0xea, 0xbe, 0x21, 0x12, 0x49, 0x3d, 0xd2, 0x77, 0xa9, 0xbe,
  0xfa, 0x5f, 0x89, 0x3e, 0x56, 0x99, 0xbb, 0x3f, 0x26, 0x48, 0xd7, 0x3f,
  0xbc, 0x83, 0x81, 0xbf, 0x68, 0xf1, 0x23, 0x3d, 0xa5, 0xf8, 0x1c, 0x40,
  0xad, 0x62, 0xd6, 0xbc, 0xca, 0xfe, 0xff, 0xff, 0x10, 0x00, 0x00, 0x00,
  0x04, 0x00, 0x00, 0x00, 0x10, 0x00, 0x00, 0x00, 0x44, 0x00, 0x00, 0x00,
  0x01, 0x00, 0x00, 0x00, 0x10, 0x00, 0x00, 0x00, 0x30, 0x00, 0x00, 0x00,
  0x73, 0x65, 0x71, 0x75, 0x65, 0x6e, 0x74, 0x69, 0x61, 0x6c, 0x2f, 0x64,
  0x65, 0x6e, 0x73, 0x65, 0x2f, 0x42, 0x69, 0x61, 0x73, 0x41, 0x64, 0x64,
  0x2f, 0x52, 0x65, 0x61, 0x64, 0x56, 0x61, 0x72, 0x69, 0x61, 0x62, 0x6c,
  0x65, 0x4f, 0x70, 0x2f, 0x72, 0x65, 0x73, 0x6f, 0x75, 0x72, 0x63, 0x65,
  0x00, 0x00, 0x00, 0x00, 0x4c, 0xfe, 0xff, 0xff, 0x56, 0xff, 0xff, 0xff,
  0x04, 0x00, 0x00, 0x00, 0x40, 0x00, 0x00, 0x00, 0xf8, 0xbd, 0x78, 0xbf,
  0xa6, 0x66, 0x5d, 0xbe, 0x84, 0x3b, 0x31, 0xc0, 0xf9, 0x05, 0x19, 0xbf,
  0x95, 0x1d, 0xeb, 0xbf, 0xc0, 0x40, 0x99, 0x3f, 0x25, 0xd7, 0x36, 0x3f,
  0x1e, 0x23, 0xba, 0xbe, 0xd2, 0x99, 0x73, 0xbf, 0xa0, 0xfa, 0xa3, 0x3e,
  0x39, 0x8b, 0xed, 0xbf, 0x0f, 0xe3, 0x8f, 0x40, 0xfa, 0x04, 0x0b, 0xc0,
  0xc6, 0xe4, 0x14, 0x3e, 0x1f, 0x44, 0xc2, 0xbf, 0x30, 0x33, 0xa1, 0xbf,
  0x6e, 0xff, 0xff, 0xff, 0x10, 0x00, 0x00, 0x00, 0x03, 0x00, 0x00, 0x00,
  0x10, 0x00, 0x00, 0x00, 0x48, 0x00, 0x00, 0x00, 0x01, 0x00, 0x00, 0x00,
  0x10, 0x00, 0x00, 0x00, 0x33, 0x00, 0x00, 0x00, 0x73, 0x65, 0x71, 0x75,
  0x65, 0x6e, 0x74, 0x69, 0x61, 0x6c, 0x2f, 0x63, 0x6f, 0x6e, 0x76, 0x32,
  0x64, 0x5f, 0x31, 0x2f, 0x42, 0x69, 0x61, 0x73, 0x41, 0x64, 0x64, 0x2f,
  0x52, 0x65, 0x61, 0x64, 0x56, 0x61, 0x72, 0x69, 0x61, 0x62, 0x6c, 0x65,
  0x4f, 0x70, 0x2f, 0x72, 0x65, 0x73, 0x6f, 0x75, 0x72, 0x63, 0x65, 0x00,
  0x04, 0x00, 0x06, 0x00, 0x04, 0x00, 0x00, 0x00, 0x00, 0x00, 0x06, 0x00,
  0x08, 0x00, 0x04, 0x00, 0x06, 0x00, 0x00, 0x00, 0x04, 0x00, 0x00, 0x00,
  0x20, 0x00, 0x00, 0x00, 0x6e, 0xcf, 0xa1, 0x3c, 0xff, 0xa2, 0xbf, 0xbe,
  0xc5, 0x6d, 0xf6, 0x3f, 0x7d, 0x21, 0xea, 0xbf, 0x0b, 0xe7, 0x4d, 0xbe,
  0x10, 0x44, 0x26, 0xbf, 0x96, 0xad, 0xc5, 0xbf, 0x55, 0xf5, 0x1c, 0x3f,
  0x00, 0x00, 0x0e, 0x00, 0x14, 0x00, 0x04, 0x00, 0x00, 0x00, 0x08, 0x00,
  0x0c, 0x00, 0x10, 0x00, 0x0e, 0x00, 0x00, 0x00, 0x10, 0x00, 0x00, 0x00,
  0x02, 0x00, 0x00, 0x00, 0x10, 0x00, 0x00, 0x00, 0x44, 0x00, 0x00, 0x00,
  0x01, 0x00, 0x00, 0x00, 0x08, 0x00, 0x00, 0x00, 0x31, 0x00, 0x00, 0x00,
  0x73, 0x65, 0x71, 0x75, 0x65, 0x6e, 0x74, 0x69, 0x61, 0x6c, 0x2f, 0x63,
  0x6f, 0x6e, 0x76, 0x32, 0x64, 0x2f, 0x42, 0x69, 0x61, 0x73, 0x41, 0x64,
  0x64, 0x2f, 0x52, 0x65, 0x61, 0x64, 0x56, 0x61, 0x72, 0x69, 0x61, 0x62,
  0x6c, 0x65, 0x4f, 0x70, 0x2f, 0x72, 0x65, 0x73, 0x6f, 0x75, 0x72, 0x63,
  0x65, 0x00, 0x00, 0x00, 0x90, 0xff, 0xff, 0xff, 0x14, 0x00, 0x18, 0x00,
  0x04, 0x00, 0x00, 0x00, 0x08, 0x00, 0x0c, 0x00, 0x10, 0x00, 0x00, 0x00,
  0x00, 0x00, 0x14, 0x00, 0x14, 0x00, 0x00, 0x00, 0x14, 0x00, 0x00, 0x00,
  0x01, 0x00, 0x00, 0x00, 0x20, 0x00, 0x00, 0x00, 0x44, 0x00, 0x00, 0x00,
  0x2c, 0x00, 0x00, 0x00, 0x04, 0x00, 0x00, 0x00, 0x01, 0x00, 0x00, 0x00,
  0x40, 0x00, 0x00, 0x00, 0x03, 0x00, 0x00, 0x00, 0x01, 0x00, 0x00, 0x00,
  0x0c, 0x00, 0x00, 0x00, 0x63, 0x6f, 0x6e, 0x76, 0x32, 0x64, 0x5f, 0x69,
  0x6e, 0x70, 0x75, 0x74, 0x00, 0x00, 0x00, 0x00, 0x04, 0x00, 0x00, 0x00,
  0xff, 0xff, 0xff, 0xff, 0x40, 0x00, 0x00, 0x00, 0x03, 0x00, 0x00, 0x00,
  0x01, 0x00, 0x00, 0x00, 0xfc, 0xff, 0xff, 0xff, 0x04, 0x00, 0x04, 0x00,
  0x04, 0x00, 0x00, 0x00
};

unsigned int model_tflite_len = 13120;// Fill the int in `src/model.cc` here